const unsigned char dht_classifier_tflite[] = {
  0x1c, 0x00, 0x00, 0x00, 0x54, 0x46, 0x4c, 0x33, 0x14, 0x00, 0x20, 0x00,
  0x1c, 0x00, 0x18, 0x00, 0x14, 0x00, 0x10, 0x00, 0x0c, 0x00, 0x00, 0x00,
  0x08, 0x00, 0x04, 0x00, 0x14, 0x00, 0x00, 0x00, 0x1c, 0x00, 0x00, 0x00,
  0x98, 0x00, 0x00, 0x00, 0xf0, 0x00, 0x00, 0x00, 0x64, 0x08, 0x00, 0x00,
  0x74, 0x08, 0x00, 0x00, 0x28, 0x0e, 0x00, 0x00, 0x03, 0x00, 0x00, 0x00,
  0x01, 0x00, 0x00, 0x00, 0x10, 0x00, 0x00, 0x00, 0x00, 0x00, 0x0a, 0x00,
  0x10, 0x00, 0x0c, 0x00, 0x08, 0x00, 0x04, 0x00, 0x0a, 0x00, 0x00, 0x00,
  0x0c, 0x00, 0x00, 0x00, 0x1c, 0x00, 0x00, 0x00, 0x3c, 0x00, 0x00, 0x00,
  0x0f, 0x00, 0x00, 0x00, 0x73, 0x65, 0x72, 0x76, 0x69, 0x6e, 0x67, 0x5f,
  0x64, 0x65, 0x66, 0x61, 0x75, 0x6c, 0x74, 0x00, 0x01, 0x00, 0x00, 0x00,
  0x04, 0x00, 0x00, 0x00, 0x90, 0xff, 0xff, 0xff, 0x0a, 0x00, 0x00, 0x00,
  0x04, 0x00, 0x00, 0x00, 0x08, 0x00, 0x00, 0x00, 0x6f, 0x75, 0x74, 0x70,
  0x75, 0x74, 0x5f, 0x30, 0x00, 0x00, 0x00, 0x00, 0x01, 0x00, 0x00, 0x00,
  0x04, 0x00, 0x00, 0x00, 0x82, 0xf7, 0xff, 0xff, 0x04, 0x00, 0x00, 0x00,
  0x0c, 0x00, 0x00, 0x00, 0x6b, 0x65, 0x72, 0x61, 0x73, 0x5f, 0x74, 0x65,
  0x6e, 0x73, 0x6f, 0x72, 0x00, 0x00, 0x00, 0x00, 0x02, 0x00, 0x00, 0x00,
  0x34, 0x00, 0x00, 0x00, 0x04, 0x00, 0x00, 0x00, 0xdc, 0xff, 0xff, 0xff,
  0x0d, 0x00, 0x00, 0x00, 0x04, 0x00, 0x00, 0x00, 0x13, 0x00, 0x00, 0x00,
  0x43, 0x4f, 0x4e, 0x56, 0x45, 0x52, 0x53, 0x49, 0x4f, 0x4e, 0x5f, 0x4d,
  0x45, 0x54, 0x41, 0x44, 0x41, 0x54, 0x41, 0x00, 0x08, 0x00, 0x0c, 0x00,
  0x08, 0x00, 0x04, 0x00, 0x08, 0x00, 0x00, 0x00, 0x0c, 0x00, 0x00, 0x00,
  0x04, 0x00, 0x00, 0x00, 0x13, 0x00, 0x00, 0x00, 0x6d, 0x69, 0x6e, 0x5f,
  0x72, 0x75, 0x6e, 0x74, 0x69, 0x6d, 0x65, 0x5f, 0x76, 0x65, 0x72, 0x73,
  0x69, 0x6f, 0x6e, 0x00, 0x0e, 0x00, 0x00, 0x00, 0x70, 0x07, 0x00, 0x00,
  0x68, 0x07, 0x00, 0x00, 0x18, 0x06, 0x00, 0x00, 0x08, 0x02, 0x00, 0x00,
  0xe4, 0x01, 0x00, 0x00, 0x94, 0x01, 0x00, 0x00, 0x44, 0x01, 0x00, 0x00,
  0xb4, 0x00, 0x00, 0x00, 0xac, 0x00, 0x00, 0x00, 0xa4, 0x00, 0x00, 0x00,
  0x9c, 0x00, 0x00, 0x00, 0x94, 0x00, 0x00, 0x00, 0x74, 0x00, 0x00, 0x00,
  0x04, 0x00, 0x00, 0x00, 0x36, 0xf8, 0xff, 0xff, 0x04, 0x00, 0x00, 0x00,
  0x60, 0x00, 0x00, 0x00, 0x0c, 0x00, 0x00, 0x00, 0x08, 0x00, 0x0e, 0x00,
  0x08, 0x00, 0x04, 0x00, 0x08, 0x00, 0x00, 0x00, 0x10, 0x00, 0x00, 0x00,
  0x28, 0x00, 0x00, 0x00, 0x00, 0x00, 0x06, 0x00, 0x08, 0x00, 0x04, 0x00,
  0x06, 0x00, 0x00, 0x00, 0x04, 0x00, 0x00, 0x00, 0x01, 0x00, 0x00, 0x00,
  0xea, 0x03, 0x00, 0x00, 0x0c, 0x00, 0x18, 0x00, 0x14, 0x00, 0x10, 0x00,
  0x0c, 0x00, 0x04, 0x00, 0x0c, 0x00, 0x00, 0x00, 0x24, 0x72, 0x73, 0x96,
  0x4b, 0x51, 0x56, 0xd1, 0x02, 0x00, 0x00, 0x00, 0x02, 0x00, 0x00, 0x00,
  0x04, 0x00, 0x00, 0x00, 0x06, 0x00, 0x00, 0x00, 0x32, 0x2e, 0x31, 0x39,
  0x2e, 0x30, 0x00, 0x00, 0xa2, 0xf8, 0xff, 0xff, 0x04, 0x00, 0x00, 0x00,
  0x10, 0x00, 0x00, 0x00, 0x31, 0x2e, 0x35, 0x2e, 0x30, 0x00, 0x00, 0x00,
  0x00, 0x00, 0x00, 0x00, 0x00, 0x00, 0x00, 0x00, 0xb8, 0xf3, 0xff, 0xff,
  0xbc, 0xf3, 0xff, 0xff, 0xc0, 0xf3, 0xff, 0xff, 0xc4, 0xf3, 0xff, 0xff,
  0xce, 0xf8, 0xff, 0xff, 0x04, 0x00, 0x00, 0x00, 0x80, 0x00, 0x00, 0x00,
  0x6f, 0xce, 0x97, 0x3f, 0x2f, 0xd8, 0x07, 0x3e, 0x4a, 0x87, 0x92, 0x3f,
  0xdd, 0x66, 0x5c, 0x3d, 0xb3, 0x3d, 0x64, 0xbf, 0x33, 0xd0, 0x89, 0xba,
  0x38, 0x8c, 0xcd, 0x3c, 0x34, 0xd7, 0x8e, 0x3f, 0x61, 0x5c, 0x33, 0x89,
  0x7e, 0xab, 0xaf, 0x87, 0xe8, 0x3e, 0x83, 0x3f, 0x8d, 0x1c, 0x4b, 0x3e,
  0x1c, 0x72, 0xbd, 0x3e, 0x57, 0x4a, 0x88, 0xbf, 0xe7, 0x90, 0x84, 0x3f,
  0xa8, 0x24, 0x2f, 0x3c, 0x97, 0x41, 0x5d, 0xbc, 0xe3, 0x6b, 0x8d, 0x3f,
  0x06, 0x7b, 0x5d, 0xbf, 0xbc, 0x92, 0x06, 0xbb, 0xd0, 0x64, 0x5b, 0x89,
  0x95, 0xaa, 0x52, 0x89, 0x85, 0x13, 0x0c, 0x09, 0x02, 0x8b, 0xbf, 0x08,
  0x0f, 0x8a, 0x3f, 0x3f, 0x1a, 0x9c, 0x6b, 0xbe, 0xf0, 0xf8, 0x9a, 0x3b,
  0x78, 0x49, 0x83, 0x3f, 0x7b, 0x17, 0x99, 0x09, 0xac, 0xc4, 0xc9, 0x09,
  0x8c, 0xe2, 0xfc, 0xbc, 0x12, 0x53, 0x8c, 0x3f, 0x5a, 0xf9, 0xff, 0xff,
  0x04, 0x00, 0x00, 0x00, 0x40, 0x00, 0x00, 0x00, 0x1f, 0xfc, 0x02, 0xbf,
  0x50, 0xa6, 0xdf, 0xbe, 0x4d, 0xa3, 0x23, 0x3f, 0x6d, 0x31, 0xc2, 0xbe,
  0x21, 0x53, 0xe8, 0x9b, 0xb6, 0xc7, 0xfe, 0xbe, 0x9b, 0x19, 0x82, 0x3e,
  0x75, 0x6c, 0xb6, 0xbe, 0xf5, 0x6b, 0xbe, 0xbe, 0x8b, 0xf8, 0x1f, 0x3f,
  0xdc, 0x82, 0x20, 0x96, 0xcd, 0x4b, 0x0f, 0xb3, 0x3b, 0xf7, 0x8e, 0xbd,
  0xee, 0xb2, 0xaf, 0xbe, 0x7e, 0xe4, 0x8b, 0x9a, 0xaa, 0x74, 0xb4, 0xbe,
  0xa6, 0xf9, 0xff, 0xff, 0x04, 0x00, 0x00, 0x00, 0x40, 0x00, 0x00, 0x00,
  0x1b, 0xec, 0xbb, 0x3a, 0x39, 0x75, 0xeb, 0x3d, 0xbe, 0x3f, 0x75, 0xbc,
  0xfc, 0xed, 0xb6, 0xbc, 0x29, 0x6e, 0x0a, 0x3f, 0x4f, 0x1e, 0x9d, 0xbc,
  0x9c, 0xc1, 0xff, 0xbb, 0x9e, 0x97, 0x0f, 0x3b, 0x68, 0xd3, 0x2b, 0xbe,
  0x84, 0x08, 0x03, 0x3f, 0x98, 0xea, 0x0c, 0x3f, 0x96, 0xa3, 0x8f, 0x3d,
  0x64, 0x95, 0xf4, 0x3e, 0x82, 0xe8, 0x57, 0xbd, 0x72, 0x5b, 0xc4, 0xbd,
  0x01, 0x42, 0x0d, 0x3f, 0xf2, 0xf9, 0xff, 0xff, 0x04, 0x00, 0x00, 0x00,
  0x14, 0x00, 0x00, 0x00, 0x08, 0xba, 0x2c, 0x3e, 0xf8, 0xdb, 0x46, 0xbf,
  0x44, 0x0c, 0x76, 0x3f, 0x5a, 0x63, 0x20, 0xbe, 0x76, 0x2a, 0x9e, 0xbe,
  0x12, 0xfa, 0xff, 0xff, 0x04, 0x00, 0x00, 0x00, 0x00, 0x04, 0x00, 0x00,
  0xa1, 0x88, 0x05, 0xbd, 0xfd, 0xa7, 0x6b, 0xbc, 0x1e, 0x27, 0x06, 0xbc,
  0xe3, 0xf6, 0x71, 0x3f, 0xa5, 0x47, 0xdf, 0x89, 0xc6, 0xa5, 0x4c, 0x3d,
  0xcf, 0x7b, 0x24, 0xbe, 0x29, 0x8f, 0x70, 0x3a, 0x21, 0x8b, 0x6c, 0x3f,
  0xa9, 0x85, 0x55, 0x3b, 0x3d, 0x9e, 0xd2, 0x89, 0x58, 0xb7, 0xf6, 0x8a,
  0x23, 0xbe, 0xda, 0x3b, 0x69, 0x1c, 0x65, 0x3f, 0x5b, 0x5c, 0x53, 0x08,
  0xcc, 0x80, 0x42, 0x3f, 0x35, 0xdc, 0xa4, 0x3d, 0x72, 0xd2, 0xf2, 0x3c,
  0x04, 0x5c, 0xe0, 0xbe, 0x22, 0xaf, 0x03, 0xbf, 0xd8, 0xac, 0xd1, 0x88,
  0xdf, 0x31, 0x1d, 0x3e, 0xd1, 0x18, 0x24, 0x3f, 0xad, 0xe3, 0xb7, 0x3d,
  0xa9, 0x3e, 0xd7, 0xbe, 0x36, 0x25, 0x8e, 0xbe, 0xea, 0x83, 0xd2, 0x88,
  0x19, 0xbd, 0x46, 0x09, 0x15, 0xfa, 0x3a, 0x3e, 0xdb, 0x04, 0xf8, 0xbe,
  0x38, 0xbc, 0x41, 0x09, 0x49, 0xce, 0x0a, 0xbf, 0x72, 0x36, 0xb8, 0x3d,
  0x8d, 0x4a, 0xd6, 0xbc, 0x58, 0x57, 0x9f, 0x3c, 0x20, 0xeb, 0x5b, 0x3f,
  0xea, 0xa4, 0xa5, 0x89, 0xfc, 0x19, 0x72, 0x3d, 0xb7, 0xa2, 0x92, 0xbe,
  0x83, 0x72, 0x04, 0x3b, 0xcf, 0xc2, 0x56, 0x3f, 0x24, 0x20, 0x3b, 0x3d,
  0x9b, 0xa1, 0x00, 0x09, 0x70, 0x3b, 0xfb, 0x08, 0xe3, 0x17, 0x6a, 0x3c,
  0xc0, 0x38, 0x43, 0x3f, 0xf1, 0x07, 0xee, 0x09, 0x15, 0x39, 0x53, 0x3f,
  0x18, 0x29, 0x8c, 0x3f, 0xa5, 0x89, 0x6e, 0x3f, 0x5d, 0x9b, 0x5c, 0xbc,
  0xca, 0x93, 0x02, 0xbc, 0x00, 0xad, 0x27, 0x86, 0xd9, 0xee, 0x82, 0x3f,
  0xe2, 0x6b, 0x03, 0xbe, 0x9a, 0xea, 0x6e, 0x3f, 0xc4, 0x79, 0xdf, 0x3b,
  0x07, 0x4f, 0xb7, 0xbb, 0xc3, 0xe0, 0x7b, 0x88, 0xc8, 0x69, 0x8d, 0x89,
  0x2b, 0xe2, 0xd5, 0x3e, 0x8b, 0x38, 0xed, 0x3b, 0xb8, 0xe4, 0x67, 0x89,
  0xc5, 0x96, 0xe0, 0x39, 0x2a, 0xa8, 0xa4, 0xbd, 0x73, 0x74, 0x3e, 0xbd,
  0x5b, 0xde, 0x17, 0x3d, 0x2e, 0x1f, 0x8f, 0xbe, 0x30, 0xb1, 0x86, 0x89,
  0x10, 0xaa, 0x90, 0xbd, 0x60, 0x6b, 0x52, 0x3f, 0xd1, 0x19, 0xa1, 0x3c,
  0x05, 0x84, 0xb2, 0xbe, 0x5a, 0x15, 0x8f, 0x3d, 0xd0, 0xed, 0x8a, 0x09,
  0x75, 0x9c, 0x67, 0x89, 0x59, 0x35, 0x2b, 0x3e, 0x58, 0x15, 0xb7, 0xbe,
  0x36, 0x68, 0xd7, 0x8b, 0xdf, 0xf3, 0xb3, 0xbe, 0x02, 0x1a, 0x4a, 0x3c,
  0x5a, 0x2c, 0x61, 0xbc, 0x0c, 0xc8, 0x0f, 0x3d, 0xbc, 0x5f, 0x54, 0x3f,
  0x0c, 0x83, 0xa6, 0x09, 0x7c, 0x52, 0x8a, 0x3d, 0x5d, 0x28, 0x59, 0xbe,
  0x96, 0x5b, 0xac, 0x3b, 0x21, 0x36, 0x70, 0x3f, 0x2f, 0x21, 0xd9, 0x3c,
  0xca, 0x71, 0xe2, 0x0a, 0x5a, 0xfe, 0xe9, 0x08, 0x0b, 0xab, 0x00, 0x3d,
  0xbe, 0xed, 0x67, 0x3f, 0x50, 0x4c, 0xb5, 0x08, 0x39, 0x32, 0x5e, 0x3f,
  0x1b, 0x46, 0x89, 0x3f, 0x05, 0x84, 0x81, 0x3f, 0x03, 0xa7, 0x9c, 0xbc,
  0xcf, 0xbe, 0xfa, 0x3b, 0x52, 0x45, 0x5c, 0x0a, 0xe5, 0x7a, 0x79, 0x3f,
  0x3c, 0x75, 0xe5, 0xbd, 0x40, 0xde, 0x70, 0x3f, 0x0c, 0x04, 0x1d, 0x3b,
  0x38, 0xf8, 0xbd, 0xbc, 0x60, 0xb7, 0xfb, 0x88, 0xc0, 0x08, 0xe3, 0x87,
  0x87, 0x8d, 0xd7, 0x3e, 0x8d, 0x88, 0xc4, 0x3a, 0x49, 0x5e, 0x28, 0x89,
  0x6a, 0x7e, 0x02, 0x3c, 0x21, 0xf3, 0x6a, 0x3f, 0x16, 0xd8, 0x7b, 0x3f,
  0x65, 0x66, 0xf5, 0xbc, 0xfe, 0x37, 0x58, 0x3c, 0x08, 0x52, 0xaf, 0x89,
  0x49, 0x20, 0x55, 0x3f, 0x88, 0xa3, 0x86, 0xbe, 0x05, 0x6e, 0x5f, 0x3f,
  0x5f, 0x1e, 0x4e, 0xbd, 0x41, 0xa8, 0xcf, 0xbc, 0x8f, 0x3f, 0xb5, 0x89,
  0x06, 0xb9, 0x88, 0x09, 0x41, 0xe1, 0x16, 0x3f, 0x54, 0x40, 0x2a, 0x3d,
  0x2a, 0xaa, 0xad, 0x89, 0xc6, 0x3d, 0x8c, 0x3c, 0x37, 0xda, 0xfa, 0xbe,
  0x42, 0x7f, 0x0a, 0xbf, 0x13, 0xd3, 0x22, 0x3e, 0x4b, 0x8b, 0xbd, 0x3e,
  0xde, 0x3c, 0xef, 0x89, 0x82, 0x0c, 0xc9, 0xbe, 0xcb, 0x06, 0x05, 0xbe,
  0x08, 0xea, 0x29, 0xbf, 0x82, 0x0c, 0x94, 0x3e, 0xd6, 0x2f, 0x25, 0x3e,
  0xf3, 0x5d, 0xd0, 0x89, 0x0a, 0x8a, 0x80, 0x09, 0x6f, 0xe1, 0x4c, 0xbf,
  0xf0, 0x07, 0xb6, 0x3e, 0x4e, 0x4d, 0x33, 0x09, 0x9b, 0xf5, 0xa5, 0x3e,
  0xf1, 0x4d, 0x32, 0xbe, 0x24, 0x00, 0x32, 0xbe, 0xac, 0x37, 0xa3, 0x3f,
  0x75, 0x1f, 0xf5, 0xbd, 0x6f, 0x2d, 0xb5, 0x89, 0xfd, 0x62, 0x6f, 0xbe,
  0x0b, 0x1d, 0x3d, 0xbe, 0x51, 0x9c, 0x42, 0xbe, 0xcc, 0x9d, 0x02, 0xbe,
  0xf3, 0xa3, 0xa3, 0x3f, 0x1b, 0x9f, 0xd9, 0x09, 0xc4, 0x19, 0xc2, 0x88,
  0x28, 0xa3, 0x4e, 0xbe, 0x9e, 0x29, 0x17, 0xbe, 0xfa, 0x7b, 0x7a, 0x09,
  0x5a, 0x48, 0xb5, 0xbd, 0xdc, 0x2e, 0x59, 0xbe, 0x26, 0x82, 0x58, 0xbe,
  0xe0, 0xb8, 0xa3, 0x3f, 0x43, 0x15, 0xcc, 0xbd, 0xc0, 0x2b, 0x20, 0x09,
  0x89, 0x63, 0x82, 0xbe, 0x28, 0x46, 0x6f, 0xbe, 0x6b, 0x40, 0x82, 0xbe,
  0x85, 0xac, 0xf2, 0xbd, 0xa5, 0x2c, 0x9a, 0x3f, 0x00, 0xb2, 0x79, 0x85,
  0xe7, 0xd1, 0xeb, 0x09, 0x5f, 0x9a, 0x55, 0xbe, 0x8e, 0x41, 0xee, 0xbd,
  0x78, 0x96, 0xe8, 0x87, 0x8c, 0x12, 0xf8, 0xbd, 0x36, 0xe4, 0x31, 0x3e,
  0x93, 0x22, 0xfa, 0x3d, 0x9d, 0xed, 0xfa, 0xbe, 0x92, 0x47, 0x03, 0xbf,
  0xf9, 0x0f, 0x92, 0x88, 0x7d, 0x5e, 0x07, 0x3e, 0xb2, 0x80, 0xdd, 0x3e,
  0xab, 0x35, 0xcb, 0x3d, 0xbf, 0x74, 0x0c, 0xbf, 0xa0, 0xbd, 0xf2, 0xbe,
  0x22, 0xcb, 0x9b, 0x89, 0x0f, 0xdf, 0x01, 0x08, 0xc1, 0xfa, 0x83, 0x3d,
  0x81, 0x02, 0xf2, 0xbe, 0xb0, 0xcf, 0x72, 0x86, 0xc2, 0xc8, 0x06, 0xbf,
  0xaf, 0x04, 0xce, 0x3c, 0xbc, 0x69, 0x69, 0x3d, 0x46, 0x7a, 0x1a, 0x3c,
  0x1d, 0xe4, 0x8f, 0xbe, 0x2c, 0x62, 0xc2, 0x08, 0xfa, 0x02, 0x80, 0xbd,
  0x9d, 0xf9, 0x42, 0x3f, 0x39, 0x96, 0xc9, 0x3c, 0xbc, 0x64, 0x99, 0xbe,
  0xb7, 0xfe, 0x5c, 0xbd, 0x40, 0x34, 0xf6, 0x05, 0x29, 0x86, 0x8e, 0x09,
  0x40, 0xd3, 0x96, 0x3e, 0x9a, 0xad, 0xa7, 0xbe, 0xd8, 0x90, 0xd7, 0x88,
  0xb4, 0x53, 0xa5, 0xbe, 0xc3, 0xd6, 0x98, 0x3c, 0xb4, 0x3b, 0x5e, 0x3d,
  0x2f, 0x1a, 0x73, 0x3d, 0xef, 0x73, 0x3f, 0x3f, 0xbc, 0xc4, 0x09, 0x07,
  0x52, 0xe6, 0x3d, 0x3d, 0x55, 0x05, 0x83, 0xbe, 0xcd, 0x5c, 0xd0, 0x3c,
  0x91, 0x8d, 0x52, 0x3f, 0xd1, 0xbf, 0xb3, 0x3d, 0xc4, 0xac, 0x1f, 0x08,
  0x49, 0x45, 0x7d, 0x09, 0x2a, 0x5d, 0x2f, 0x3d, 0xea, 0x8a, 0x5f, 0x3f,
  0x90, 0x50, 0x22, 0x89, 0x4d, 0x71, 0x3a, 0x3f, 0xb0, 0x26, 0x98, 0x3e,
  0xe8, 0xfa, 0x90, 0x3e, 0xd6, 0x2b, 0x19, 0xbf, 0xc1, 0x54, 0x31, 0xbe,
  0x3c, 0x3c, 0xa7, 0x09, 0x39, 0x4f, 0x6e, 0x3e, 0x41, 0x05, 0x0e, 0x3f,
  0x56, 0x17, 0x9d, 0x3e, 0xb0, 0x11, 0x0e, 0xbe, 0xc0, 0xff, 0x12, 0xbf,
  0xd8, 0x2b, 0x58, 0x89, 0x60, 0xc4, 0x93, 0x87, 0x83, 0x3e, 0x60, 0x3e,
  0x7c, 0xaa, 0x76, 0xbe, 0x3e, 0x6b, 0xa0, 0x89, 0xa5, 0xc9, 0x22, 0xbe,
  0x25, 0x4b, 0x68, 0xbe, 0xe8, 0xed, 0x5b, 0xbe, 0xf4, 0xe8, 0x9c, 0x3f,
  0x49, 0x3d, 0x0b, 0xbd, 0x08, 0xf5, 0xaa, 0x09, 0x72, 0x3b, 0x97, 0xbe,
  0x19, 0x1e, 0x85, 0xbe, 0xf6, 0xef, 0x64, 0xbe, 0x2d, 0x22, 0xdd, 0xbd,
  0x37, 0x93, 0x9b, 0x3f, 0x34, 0xac, 0x18, 0x09, 0x82, 0x41, 0x75, 0x09,
  0xb4, 0x9f, 0x4a, 0xbe, 0xe5, 0x6f, 0x85, 0xbd, 0xcf, 0x23, 0xcd, 0x09,
  0x07, 0xb5, 0xce, 0xbd, 0x1e, 0xfe, 0xff, 0xff, 0x04, 0x00, 0x00, 0x00,
  0x40, 0x01, 0x00, 0x00, 0xca, 0x3a, 0xf1, 0x3e, 0xba, 0xab, 0xba, 0xbf,
  0x35, 0x6f, 0xad, 0x3e, 0xb5, 0x7d, 0x03, 0x3f, 0x8f, 0xdc, 0xfd, 0xbc,
  0x6b, 0x39, 0x64, 0x3e, 0xc1, 0xc9, 0xfa, 0x3e, 0x67, 0xe1, 0x1f, 0x3f,
  0x3b, 0xdc, 0xe8, 0xbf, 0xfe, 0x10, 0xdd, 0x3e, 0xc2, 0x6f, 0x0b, 0x3e,
  0xa5, 0x16, 0xce, 0xbf, 0xb6, 0xeb, 0x97, 0xbe, 0xee, 0x7f, 0xbb, 0x3e,
  0xbf, 0xcf, 0xb0, 0xbf, 0x15, 0x76, 0xeb, 0x3e, 0x3a, 0x64, 0x4b, 0x3f,
  0x76, 0x45, 0xa4, 0xbe, 0x98, 0xd3, 0x3a, 0x3f, 0x72, 0xa9, 0x3d, 0x3f,
  0xb0, 0xc9, 0xa9, 0xbf, 0xcb, 0xc9, 0x20, 0x3f, 0xe4, 0xe2, 0x38, 0x3f,
  0x7e, 0x92, 0x4e, 0x3f, 0xc1, 0x8a, 0x5f, 0xbf, 0x33, 0x7b, 0x19, 0xc0,
  0x4b, 0x20, 0x0b, 0xc0, 0x33, 0x2c, 0xab, 0xbe, 0xd8, 0x12, 0x7e, 0xbf,
  0x31, 0xa5, 0x4a, 0x3f, 0xce, 0x59, 0xb2, 0x3b, 0x60, 0xed, 0xd4, 0xbf,
  0xf0, 0x00, 0xf0, 0xbf, 0x71, 0x1f, 0x7d, 0x3c, 0x61, 0x85, 0xfb, 0xbf,
  0xc4, 0xdc, 0xfe, 0xbf, 0x08, 0x42, 0x34, 0x3f, 0xe3, 0xb9, 0x08, 0xc0,
  0xbf, 0x62, 0xcb, 0xbf, 0x8d, 0x48, 0xe1, 0xbf, 0xed, 0xe2, 0x25, 0xbf,
  0x74, 0x20, 0x5c, 0x3f, 0x7d, 0x52, 0x02, 0x3f, 0xce, 0x6b, 0x5a, 0xbf,
  0x46, 0x9e, 0x3b, 0x3e, 0xd2, 0xbb, 0xe1, 0xbf, 0x52, 0x0e, 0xb9, 0xbf,
  0x73, 0xbf, 0x51, 0x3f, 0x2d, 0xae, 0xb9, 0xbf, 0x57, 0x14, 0xea, 0x3f,
  0x1f, 0x8f, 0xaf, 0xbf, 0xac, 0xa1, 0x33, 0x3f, 0x11, 0x99, 0x15, 0x3f,
  0xc1, 0x85, 0xe6, 0xbf, 0x7d, 0xcf, 0x39, 0x3f, 0xa1, 0x00, 0x32, 0x3f,
  0xe9, 0x47, 0x77, 0xbf, 0xe3, 0xda, 0x8a, 0xbf, 0xaf, 0xc8, 0xb5, 0xbf,
  0x9d, 0x5e, 0xee, 0x3f, 0x61, 0xb0, 0x69, 0x3e, 0xcd, 0xea, 0xd1, 0xbf,
  0xe8, 0x02, 0x99, 0x3f, 0xf4, 0xe7, 0xa4, 0xbf, 0x90, 0x0d, 0x3d, 0x3f,
  0x14, 0x8d, 0x9d, 0xbf, 0x1a, 0x5b, 0x1b, 0x3f, 0xc4, 0xf5, 0x00, 0xc0,
  0x72, 0x91, 0x0a, 0xbf, 0xcb, 0x6d, 0xf4, 0x3e, 0x3d, 0x4e, 0xef, 0xbf,
  0x7e, 0xdd, 0x97, 0xbf, 0x41, 0x9d, 0xde, 0x3f, 0xb7, 0x5a, 0x33, 0x3f,
  0x24, 0x14, 0xc5, 0x3e, 0x37, 0xf7, 0x78, 0xbf, 0xf3, 0x90, 0x97, 0xbf,
  0x6f, 0x13, 0x32, 0x3f, 0x79, 0x5c, 0x61, 0xbf, 0xf8, 0x46, 0x32, 0x3f,
  0x64, 0xfa, 0xff, 0xff, 0x68, 0xfa, 0xff, 0xff, 0x0f, 0x00, 0x00, 0x00,
  0x4d, 0x4c, 0x49, 0x52, 0x20, 0x43, 0x6f, 0x6e, 0x76, 0x65, 0x72, 0x74,
  0x65, 0x64, 0x2e, 0x00, 0x01, 0x00, 0x00, 0x00, 0x14, 0x00, 0x00, 0x00,
  0x00, 0x00, 0x0e, 0x00, 0x18, 0x00, 0x14, 0x00, 0x10, 0x00, 0x0c, 0x00,
  0x08, 0x00, 0x04, 0x00, 0x0e, 0x00, 0x00, 0x00, 0x14, 0x00, 0x00, 0x00,
  0x1c, 0x00, 0x00, 0x00, 0x24, 0x01, 0x00, 0x00, 0x28, 0x01, 0x00, 0x00,
  0x2c, 0x01, 0x00, 0x00, 0x04, 0x00, 0x00, 0x00, 0x6d, 0x61, 0x69, 0x6e,
  0x00, 0x00, 0x00, 0x00, 0x04, 0x00, 0x00, 0x00, 0xcc, 0x00, 0x00, 0x00,
  0x84, 0x00, 0x00, 0x00, 0x50, 0x00, 0x00, 0x00, 0x14, 0x00, 0x00, 0x00,
  0x00, 0x00, 0x0e, 0x00, 0x1a, 0x00, 0x14, 0x00, 0x10, 0x00, 0x0c, 0x00,
  0x0b, 0x00, 0x04, 0x00, 0x0e, 0x00, 0x00, 0x00, 0x1c, 0x00, 0x00, 0x00,
  0x00, 0x00, 0x00, 0x09, 0x1c, 0x00, 0x00, 0x00, 0x20, 0x00, 0x00, 0x00,
  0x01, 0x00, 0x00, 0x00, 0x00, 0x00, 0x06, 0x00, 0x08, 0x00, 0x04, 0x00,
  0x06, 0x00, 0x00, 0x00, 0x00, 0x00, 0x80, 0x3f, 0x01, 0x00, 0x00, 0x00,
  0x0a, 0x00, 0x00, 0x00, 0x01, 0x00, 0x00, 0x00, 0x09, 0x00, 0x00, 0x00,
  0x9a, 0xff, 0xff, 0xff, 0x10, 0x00, 0x00, 0x00, 0x00, 0x00, 0x00, 0x08,
  0x0c, 0x00, 0x00, 0x00, 0x10, 0x00, 0x00, 0x00, 0x2c, 0xfb, 0xff, 0xff,
  0x01, 0x00, 0x00, 0x00, 0x09, 0x00, 0x00, 0x00, 0x03, 0x00, 0x00, 0x00,
  0x08, 0x00, 0x00, 0x00, 0x01, 0x00, 0x00, 0x00, 0x03, 0x00, 0x00, 0x00,
  0xca, 0xff, 0xff, 0xff, 0x10, 0x00, 0x00, 0x00, 0x00, 0x00, 0x00, 0x08,
  0x10, 0x00, 0x00, 0x00, 0x14, 0x00, 0x00, 0x00, 0xba, 0xff, 0xff, 0xff,
  0x00, 0x00, 0x00, 0x01, 0x01, 0x00, 0x00, 0x00, 0x08, 0x00, 0x00, 0x00,
  0x03, 0x00, 0x00, 0x00, 0x07, 0x00, 0x00, 0x00, 0x02, 0x00, 0x00, 0x00,
  0x04, 0x00, 0x00, 0x00, 0x00, 0x00, 0x0e, 0x00, 0x16, 0x00, 0x00, 0x00,
  0x10, 0x00, 0x0c, 0x00, 0x0b, 0x00, 0x04, 0x00, 0x0e, 0x00, 0x00, 0x00,
  0x18, 0x00, 0x00, 0x00, 0x00, 0x00, 0x00, 0x08, 0x18, 0x00, 0x00, 0x00,
  0x1c, 0x00, 0x00, 0x00, 0x00, 0x00, 0x06, 0x00, 0x08, 0x00, 0x07, 0x00,
  0x06, 0x00, 0x00, 0x00, 0x00, 0x00, 0x00, 0x01, 0x01, 0x00, 0x00, 0x00,
  0x07, 0x00, 0x00, 0x00, 0x03, 0x00, 0x00, 0x00, 0x00, 0x00, 0x00, 0x00,
  0x06, 0x00, 0x00, 0x00, 0x05, 0x00, 0x00, 0x00, 0x01, 0x00, 0x00, 0x00,
  0x0a, 0x00, 0x00, 0x00, 0x01, 0x00, 0x00, 0x00, 0x00, 0x00, 0x00, 0x00,
  0x0b, 0x00, 0x00, 0x00, 0xfc, 0x03, 0x00, 0x00, 0xa4, 0x03, 0x00, 0x00,
  0x4c, 0x03, 0x00, 0x00, 0x10, 0x03, 0x00, 0x00, 0xb4, 0x02, 0x00, 0x00,
  0x5c, 0x02, 0x00, 0x00, 0x10, 0x02, 0x00, 0x00, 0x7c, 0x01, 0x00, 0x00,
  0xe0, 0x00, 0x00, 0x00, 0x60, 0x00, 0x00, 0x00, 0x04, 0x00, 0x00, 0x00,
  0x46, 0xfc, 0xff, 0xff, 0x00, 0x00, 0x00, 0x01, 0x14, 0x00, 0x00, 0x00,
  0x1c, 0x00, 0x00, 0x00, 0x1c, 0x00, 0x00, 0x00, 0x0b, 0x00, 0x00, 0x00,
  0x34, 0x00, 0x00, 0x00, 0x02, 0x00, 0x00, 0x00, 0xff, 0xff, 0xff, 0xff,
  0x05, 0x00, 0x00, 0x00, 0x30, 0xfc, 0xff, 0xff, 0x1b, 0x00, 0x00, 0x00,
  0x53, 0x74, 0x61, 0x74, 0x65, 0x66, 0x75, 0x6c, 0x50, 0x61, 0x72, 0x74,
  0x69, 0x74, 0x69, 0x6f, 0x6e, 0x65, 0x64, 0x43, 0x61, 0x6c, 0x6c, 0x5f,
  0x31, 0x3a, 0x30, 0x00, 0x02, 0x00, 0x00, 0x00, 0x01, 0x00, 0x00, 0x00,
  0x05, 0x00, 0x00, 0x00, 0x9e, 0xfc, 0xff, 0xff, 0x00, 0x00, 0x00, 0x01,
  0x14, 0x00, 0x00, 0x00, 0x1c, 0x00, 0x00, 0x00, 0x1c, 0x00, 0x00, 0x00,
  0x0a, 0x00, 0x00, 0x00, 0x58, 0x00, 0x00, 0x00, 0x02, 0x00, 0x00, 0x00,
  0xff, 0xff, 0xff, 0xff, 0x05, 0x00, 0x00, 0x00, 0x88, 0xfc, 0xff, 0xff,
  0x3c, 0x00, 0x00, 0x00, 0x73, 0x65, 0x71, 0x75, 0x65, 0x6e, 0x74, 0x69,
  0x61, 0x6c, 0x5f, 0x31, 0x2f, 0x64, 0x65, 0x6e, 0x73, 0x65, 0x5f, 0x32,
  0x5f, 0x31, 0x2f, 0x4d, 0x61, 0x74, 0x4d, 0x75, 0x6c, 0x3b, 0x73, 0x65,
  0x71, 0x75, 0x65, 0x6e, 0x74, 0x69, 0x61, 0x6c, 0x5f, 0x31, 0x2f, 0x64,
  0x65, 0x6e, 0x73, 0x65, 0x5f, 0x32, 0x5f, 0x31, 0x2f, 0x42, 0x69, 0x61,
  0x73, 0x41, 0x64, 0x64, 0x00, 0x00, 0x00, 0x00, 0x02, 0x00, 0x00, 0x00,
  0x01, 0x00, 0x00, 0x00, 0x05, 0x00, 0x00, 0x00, 0x1a, 0xfd, 0xff, 0xff,
  0x00, 0x00, 0x00, 0x01, 0x14, 0x00, 0x00, 0x00, 0x1c, 0x00, 0x00, 0x00,
  0x1c, 0x00, 0x00, 0x00, 0x09, 0x00, 0x00, 0x00, 0x74, 0x00, 0x00, 0x00,
  0x02, 0x00, 0x00, 0x00, 0xff, 0xff, 0xff, 0xff, 0x10, 0x00, 0x00, 0x00,
  0x04, 0xfd, 0xff, 0xff, 0x58, 0x00, 0x00, 0x00, 0x73, 0x65, 0x71, 0x75,
  0x65, 0x6e, 0x74, 0x69, 0x61, 0x6c, 0x5f, 0x31, 0x2f, 0x64, 0x65, 0x6e,
  0x73, 0x65, 0x5f, 0x31, 0x5f, 0x32, 0x2f, 0x4d, 0x61, 0x74, 0x4d, 0x75,
  0x6c, 0x3b, 0x73, 0x65, 0x71, 0x75, 0x65, 0x6e, 0x74, 0x69, 0x61, 0x6c,
  0x5f, 0x31, 0x2f, 0x64, 0x65, 0x6e, 0x73, 0x65, 0x5f, 0x31, 0x5f, 0x32,
  0x2f, 0x52, 0x65, 0x6c, 0x75, 0x3b, 0x73, 0x65, 0x71, 0x75, 0x65, 0x6e,
  0x74, 0x69, 0x61, 0x6c, 0x5f, 0x31, 0x2f, 0x64, 0x65, 0x6e, 0x73, 0x65,
  0x5f, 0x31, 0x5f, 0x32, 0x2f, 0x42, 0x69, 0x61, 0x73, 0x41, 0x64, 0x64,
  0x00, 0x00, 0x00, 0x00, 0x02, 0x00, 0x00, 0x00, 0x01, 0x00, 0x00, 0x00,
  0x10, 0x00, 0x00, 0x00, 0xb2, 0xfd, 0xff, 0xff, 0x00, 0x00, 0x00, 0x01,
  0x14, 0x00, 0x00, 0x00, 0x1c, 0x00, 0x00, 0x00, 0x1c, 0x00, 0x00, 0x00,
  0x08, 0x00, 0x00, 0x00, 0x6c, 0x00, 0x00, 0x00, 0x02, 0x00, 0x00, 0x00,
  0xff, 0xff, 0xff, 0xff, 0x10, 0x00, 0x00, 0x00, 0x9c, 0xfd, 0xff, 0xff,
  0x52, 0x00, 0x00, 0x00, 0x73, 0x65, 0x71, 0x75, 0x65, 0x6e, 0x74, 0x69,
  0x61, 0x6c, 0x5f, 0x31, 0x2f, 0x64, 0x65, 0x6e, 0x73, 0x65, 0x5f, 0x31,
  0x2f, 0x4d, 0x61, 0x74, 0x4d, 0x75, 0x6c, 0x3b, 0x73, 0x65, 0x71, 0x75,
  0x65, 0x6e, 0x74, 0x69, 0x61, 0x6c, 0x5f, 0x31, 0x2f, 0x64, 0x65, 0x6e,
  0x73, 0x65, 0x5f, 0x31, 0x2f, 0x52, 0x65, 0x6c, 0x75, 0x3b, 0x73, 0x65,
  0x71, 0x75, 0x65, 0x6e, 0x74, 0x69, 0x61, 0x6c, 0x5f, 0x31, 0x2f, 0x64,
  0x65, 0x6e, 0x73, 0x65, 0x5f, 0x31, 0x2f, 0x42, 0x69, 0x61, 0x73, 0x41,
  0x64, 0x64, 0x00, 0x00, 0x02, 0x00, 0x00, 0x00, 0x01, 0x00, 0x00, 0x00,
  0x10, 0x00, 0x00, 0x00, 0x96, 0xfe, 0xff, 0xff, 0x00, 0x00, 0x00, 0x01,
  0x10, 0x00, 0x00, 0x00, 0x10, 0x00, 0x00, 0x00, 0x07, 0x00, 0x00, 0x00,
  0x28, 0x00, 0x00, 0x00, 0x1c, 0xfe, 0xff, 0xff, 0x1b, 0x00, 0x00, 0x00,
  0x73, 0x65, 0x71, 0x75, 0x65, 0x6e, 0x74, 0x69, 0x61, 0x6c, 0x5f, 0x31,
  0x2f, 0x64, 0x65, 0x6e, 0x73, 0x65, 0x5f, 0x31, 0x2f, 0x4d, 0x61, 0x74,
  0x4d, 0x75, 0x6c, 0x00, 0x02, 0x00, 0x00, 0x00, 0x10, 0x00, 0x00, 0x00,
  0x02, 0x00, 0x00, 0x00, 0xde, 0xfe, 0xff, 0xff, 0x00, 0x00, 0x00, 0x01,
  0x10, 0x00, 0x00, 0x00, 0x10, 0x00, 0x00, 0x00, 0x06, 0x00, 0x00, 0x00,
  0x38, 0x00, 0x00, 0x00, 0x64, 0xfe, 0xff, 0xff, 0x2b, 0x00, 0x00, 0x00,
  0x73, 0x65, 0x71, 0x75, 0x65, 0x6e, 0x74, 0x69, 0x61, 0x6c, 0x5f, 0x31,
  0x2f, 0x64, 0x65, 0x6e, 0x73, 0x65, 0x5f, 0x31, 0x2f, 0x42, 0x69, 0x61,
  0x73, 0x41, 0x64, 0x64, 0x2f, 0x52, 0x65, 0x61, 0x64, 0x56, 0x61, 0x72,
  0x69, 0x61, 0x62, 0x6c, 0x65, 0x4f, 0x70, 0x00, 0x01, 0x00, 0x00, 0x00,
  0x10, 0x00, 0x00, 0x00, 0x32, 0xff, 0xff, 0xff, 0x00, 0x00, 0x00, 0x01,
  0x10, 0x00, 0x00, 0x00, 0x10, 0x00, 0x00, 0x00, 0x05, 0x00, 0x00, 0x00,
  0x3c, 0x00, 0x00, 0x00, 0xb8, 0xfe, 0xff, 0xff, 0x2d, 0x00, 0x00, 0x00,
  0x73, 0x65, 0x71, 0x75, 0x65, 0x6e, 0x74, 0x69, 0x61, 0x6c, 0x5f, 0x31,
  0x2f, 0x64, 0x65, 0x6e, 0x73, 0x65, 0x5f, 0x31, 0x5f, 0x32, 0x2f, 0x42,
  0x69, 0x61, 0x73, 0x41, 0x64, 0x64, 0x2f, 0x52, 0x65, 0x61, 0x64, 0x56,
  0x61, 0x72, 0x69, 0x61, 0x62, 0x6c, 0x65, 0x4f, 0x70, 0x00, 0x00, 0x00,
  0x01, 0x00, 0x00, 0x00, 0x10, 0x00, 0x00, 0x00, 0x8a, 0xff, 0xff, 0xff,
  0x00, 0x00, 0x00, 0x01, 0x10, 0x00, 0x00, 0x00, 0x10, 0x00, 0x00, 0x00,
  0x04, 0x00, 0x00, 0x00, 0x1c, 0x00, 0x00, 0x00, 0x10, 0xff, 0xff, 0xff,
  0x0f, 0x00, 0x00, 0x00, 0x61, 0x72, 0x69, 0x74, 0x68, 0x2e, 0x63, 0x6f,
  0x6e, 0x73, 0x74, 0x61, 0x6e, 0x74, 0x32, 0x00, 0x01, 0x00, 0x00, 0x00,
  0x05, 0x00, 0x00, 0x00, 0xc2, 0xff, 0xff, 0xff, 0x00, 0x00, 0x00, 0x01,
  0x10, 0x00, 0x00, 0x00, 0x10, 0x00, 0x00, 0x00, 0x03, 0x00, 0x00, 0x00,
  0x1c, 0x00, 0x00, 0x00, 0x48, 0xff, 0xff, 0xff, 0x0f, 0x00, 0x00, 0x00,
  0x61, 0x72, 0x69, 0x74, 0x68, 0x2e, 0x63, 0x6f, 0x6e, 0x73, 0x74, 0x61,
  0x6e, 0x74, 0x31, 0x00, 0x02, 0x00, 0x00, 0x00, 0x10, 0x00, 0x00, 0x00,
  0x10, 0x00, 0x00, 0x00, 0x00, 0x00, 0x16, 0x00, 0x18, 0x00, 0x14, 0x00,
  0x00, 0x00, 0x10, 0x00, 0x0c, 0x00, 0x08, 0x00, 0x00, 0x00, 0x00, 0x00,
  0x00, 0x00, 0x07, 0x00, 0x16, 0x00, 0x00, 0x00, 0x00, 0x00, 0x00, 0x01,
  0x10, 0x00, 0x00, 0x00, 0x10, 0x00, 0x00, 0x00, 0x02, 0x00, 0x00, 0x00,
  0x1c, 0x00, 0x00, 0x00, 0x9c, 0xff, 0xff, 0xff, 0x0e, 0x00, 0x00, 0x00,
  0x61, 0x72, 0x69, 0x74, 0x68, 0x2e, 0x63, 0x6f, 0x6e, 0x73, 0x74, 0x61,
  0x6e, 0x74, 0x00, 0x00, 0x02, 0x00, 0x00, 0x00, 0x05, 0x00, 0x00, 0x00,
  0x10, 0x00, 0x00, 0x00, 0x00, 0x00, 0x16, 0x00, 0x1c, 0x00, 0x18, 0x00,
  0x00, 0x00, 0x14, 0x00, 0x10, 0x00, 0x0c, 0x00, 0x00, 0x00, 0x00, 0x00,
  0x08, 0x00, 0x07, 0x00, 0x16, 0x00, 0x00, 0x00, 0x00, 0x00, 0x00, 0x01,
  0x14, 0x00, 0x00, 0x00, 0x20, 0x00, 0x00, 0x00, 0x20, 0x00, 0x00, 0x00,
  0x01, 0x00, 0x00, 0x00, 0x3c, 0x00, 0x00, 0x00, 0x02, 0x00, 0x00, 0x00,
  0xff, 0xff, 0xff, 0xff, 0x02, 0x00, 0x00, 0x00, 0x04, 0x00, 0x04, 0x00,
  0x04, 0x00, 0x00, 0x00, 0x1e, 0x00, 0x00, 0x00, 0x73, 0x65, 0x72, 0x76,
  0x69, 0x6e, 0x67, 0x5f, 0x64, 0x65, 0x66, 0x61, 0x75, 0x6c, 0x74, 0x5f,
  0x6b, 0x65, 0x72, 0x61, 0x73, 0x5f, 0x74, 0x65, 0x6e, 0x73, 0x6f, 0x72,
  0x3a, 0x30, 0x00, 0x00, 0x02, 0x00, 0x00, 0x00, 0x01, 0x00, 0x00, 0x00,
  0x02, 0x00, 0x00, 0x00, 0x02, 0x00, 0x00, 0x00, 0x20, 0x00, 0x00, 0x00,
  0x04, 0x00, 0x00, 0x00, 0xf4, 0xff, 0xff, 0xff, 0x19, 0x00, 0x00, 0x00,
  0x00, 0x00, 0x00, 0x19, 0x0c, 0x00, 0x0c, 0x00, 0x0b, 0x00, 0x00, 0x00,
  0x00, 0x00, 0x04, 0x00, 0x0c, 0x00, 0x00, 0x00, 0x09, 0x00, 0x00, 0x00,
  0x00, 0x00, 0x00, 0x09,
};
const unsigned int dht_classifier_tflite_len = 3724;
