extern const unsigned char water_model_tflite[] = {
  0x1c, 0x00, 0x00, 0x00, 0x54, 0x46, 0x4c, 0x33, 0x14, 0x00, 0x20, 0x00, 
  0x1c, 0x00, 0x18, 0x00, 0x14, 0x00, 0x10, 0x00, 0x0c, 0x00, 0x00, 0x00, 
  0x08, 0x00, 0x04, 0x00, 0x14, 0x00, 0x00, 0x00, 0x1c, 0x00, 0x00, 0x00, 
  0x98, 0x00, 0x00, 0x00, 0xf0, 0x00, 0x00, 0x00, 0x1c, 0x27, 0x00, 0x00, 
  0x2c, 0x27, 0x00, 0x00, 0xe0, 0x2c, 0x00, 0x00, 0x03, 0x00, 0x00, 0x00, 
  0x01, 0x00, 0x00, 0x00, 0x10, 0x00, 0x00, 0x00, 0x00, 0x00, 0x0a, 0x00, 
  0x10, 0x00, 0x0c, 0x00, 0x08, 0x00, 0x04, 0x00, 0x0a, 0x00, 0x00, 0x00, 
  0x0c, 0x00, 0x00, 0x00, 0x1c, 0x00, 0x00, 0x00, 0x3c, 0x00, 0x00, 0x00, 
  0x0f, 0x00, 0x00, 0x00, 0x73, 0x65, 0x72, 0x76, 0x69, 0x6e, 0x67, 0x5f, 
  0x64, 0x65, 0x66, 0x61, 0x75, 0x6c, 0x74, 0x00, 0x01, 0x00, 0x00, 0x00, 
  0x04, 0x00, 0x00, 0x00, 0x90, 0xff, 0xff, 0xff, 0x0a, 0x00, 0x00, 0x00, 
  0x04, 0x00, 0x00, 0x00, 0x08, 0x00, 0x00, 0x00, 0x6f, 0x75, 0x74, 0x70, 
  0x75, 0x74, 0x5f, 0x30, 0x00, 0x00, 0x00, 0x00, 0x01, 0x00, 0x00, 0x00, 
  0x04, 0x00, 0x00, 0x00, 0xca, 0xd8, 0xff, 0xff, 0x04, 0x00, 0x00, 0x00, 
  0x0c, 0x00, 0x00, 0x00, 0x6b, 0x65, 0x72, 0x61, 0x73, 0x5f, 0x74, 0x65, 
  0x6e, 0x73, 0x6f, 0x72, 0x00, 0x00, 0x00, 0x00, 0x02, 0x00, 0x00, 0x00, 
  0x34, 0x00, 0x00, 0x00, 0x04, 0x00, 0x00, 0x00, 0xdc, 0xff, 0xff, 0xff, 
  0x0d, 0x00, 0x00, 0x00, 0x04, 0x00, 0x00, 0x00, 0x13, 0x00, 0x00, 0x00, 
  0x43, 0x4f, 0x4e, 0x56, 0x45, 0x52, 0x53, 0x49, 0x4f, 0x4e, 0x5f, 0x4d, 
  0x45, 0x54, 0x41, 0x44, 0x41, 0x54, 0x41, 0x00, 0x08, 0x00, 0x0c, 0x00, 
  0x08, 0x00, 0x04, 0x00, 0x08, 0x00, 0x00, 0x00, 0x0c, 0x00, 0x00, 0x00, 
  0x04, 0x00, 0x00, 0x00, 0x13, 0x00, 0x00, 0x00, 0x6d, 0x69, 0x6e, 0x5f, 
  0x72, 0x75, 0x6e, 0x74, 0x69, 0x6d, 0x65, 0x5f, 0x76, 0x65, 0x72, 0x73, 
  0x69, 0x6f, 0x6e, 0x00, 0x0e, 0x00, 0x00, 0x00, 0x28, 0x26, 0x00, 0x00, 
  0x20, 0x26, 0x00, 0x00, 0x90, 0x24, 0x00, 0x00, 0x80, 0x04, 0x00, 0x00, 
  0x64, 0x04, 0x00, 0x00, 0xd4, 0x03, 0x00, 0x00, 0xc4, 0x02, 0x00, 0x00, 
  0xb4, 0x00, 0x00, 0x00, 0xac, 0x00, 0x00, 0x00, 0xa4, 0x00, 0x00, 0x00, 
  0x9c, 0x00, 0x00, 0x00, 0x94, 0x00, 0x00, 0x00, 0x74, 0x00, 0x00, 0x00, 
  0x04, 0x00, 0x00, 0x00, 0x7e, 0xd9, 0xff, 0xff, 0x04, 0x00, 0x00, 0x00, 
  0x60, 0x00, 0x00, 0x00, 0x10, 0x00, 0x00, 0x00, 0x00, 0x00, 0x00, 0x00, 
  0x08, 0x00, 0x0e, 0x00, 0x08, 0x00, 0x04, 0x00, 0x08, 0x00, 0x00, 0x00, 
  0x10, 0x00, 0x00, 0x00, 0x24, 0x00, 0x00, 0x00, 0x00, 0x00, 0x06, 0x00, 
  0x08, 0x00, 0x04, 0x00, 0x06, 0x00, 0x00, 0x00, 0x04, 0x00, 0x00, 0x00, 
  0x00, 0x00, 0x00, 0x00, 0x0c, 0x00, 0x18, 0x00, 0x14, 0x00, 0x10, 0x00, 
  0x0c, 0x00, 0x04, 0x00, 0x0c, 0x00, 0x00, 0x00, 0xfc, 0xdf, 0x2f, 0xbb, 
  0x9c, 0xd2, 0x26, 0x05, 0x02, 0x00, 0x00, 0x00, 0x02, 0x00, 0x00, 0x00, 
  0x04, 0x00, 0x00, 0x00, 0x06, 0x00, 0x00, 0x00, 0x32, 0x2e, 0x31, 0x39, 
  0x2e, 0x30, 0x00, 0x00, 0xea, 0xd9, 0xff, 0xff, 0x04, 0x00, 0x00, 0x00, 
  0x10, 0x00, 0x00, 0x00, 0x31, 0x2e, 0x35, 0x2e, 0x30, 0x00, 0x00, 0x00, 
  0x00, 0x00, 0x00, 0x00, 0x00, 0x00, 0x00, 0x00, 0x00, 0xd5, 0xff, 0xff, 
  0x04, 0xd5, 0xff, 0xff, 0x08, 0xd5, 0xff, 0xff, 0x0c, 0xd5, 0xff, 0xff, 
  0x16, 0xda, 0xff, 0xff, 0x04, 0x00, 0x00, 0x00, 0x00, 0x02, 0x00, 0x00, 
  0x55, 0x68, 0xc7, 0xbb, 0x67, 0x8e, 0x55, 0xbe, 0x3f, 0xf3, 0x4a, 0x3d, 
  0xa3, 0x20, 0x0b, 0x3d, 0x9d, 0xb7, 0x8e, 0x3e, 0x44, 0xc8, 0x11, 0x3c, 
  0x6f, 0x55, 0x16, 0xbf, 0xb2, 0xe4, 0x38, 0xba, 0x16, 0x31, 0xa5, 0x3e, 
  0x18, 0x99, 0x39, 0xba, 0xc0, 0xa8, 0xcb, 0xbe, 0x71, 0x44, 0x86, 0xbe, 
  0x95, 0xe8, 0xe0, 0x3e, 0x34, 0x9c, 0x08, 0xbc, 0xee, 0x4c, 0xbc, 0xbe, 
  0x57, 0xd1, 0x2d, 0x3d, 0x13, 0x84, 0x2e, 0xbf, 0x5c, 0xf8, 0x00, 0xbd, 
  0xf3, 0xc8, 0xed, 0x3c, 0x2d, 0xcb, 0x5e, 0x3e, 0x41, 0xb0, 0xbd, 0x3b, 
  0x22, 0x1a, 0x7b, 0x3e, 0xb7, 0x9a, 0xb3, 0xbd, 0xaa, 0x96, 0x6b, 0x3a, 
  0x29, 0xf1, 0x21, 0xbe, 0x07, 0xb4, 0x82, 0xbc, 0x60, 0x9e, 0x86, 0xbc, 
  0xa9, 0xf6, 0xa6, 0x3d, 0xbb, 0x4b, 0x79, 0xbe, 0x53, 0x6d, 0xb1, 0x3b, 
  0xfc, 0x9c, 0xe0, 0x3e, 0x90, 0xf2, 0xb1, 0xbc, 0xf9, 0x6f, 0xb9, 0x3e, 
  0xf7, 0x36, 0x03, 0x3c, 0xd3, 0x15, 0x3c, 0x3d, 0x75, 0xf4, 0x58, 0xbe, 
  0xd8, 0xfd, 0x0f, 0xbe, 0x5f, 0x5c, 0x2c, 0x3e, 0x14, 0x7a, 0xc2, 0xbe, 
  0xe5, 0x02, 0x0c, 0xbd, 0x96, 0x18, 0x33, 0xbe, 0xca, 0xfd, 0x0c, 0xbe, 
  0xd8, 0x88, 0x7f, 0xbe, 0x4d, 0xb1, 0xb4, 0x3c, 0x04, 0x4b, 0x7b, 0x3d, 
  0x1b, 0x3b, 0x1a, 0xbe, 0xef, 0x50, 0xb0, 0xbe, 0xf4, 0xa7, 0xf0, 0x3d, 
  0xdc, 0xa8, 0xf3, 0xbe, 0xa4, 0x01, 0x89, 0x3e, 0x4c, 0x50, 0x21, 0xbf, 
  0x93, 0xfd, 0xdc, 0xbc, 0x5e, 0x1c, 0xbe, 0xbd, 0xe1, 0x1d, 0x20, 0xbe, 
  0x91, 0xac, 0x85, 0x3d, 0x28, 0x27, 0x88, 0xbe, 0xc7, 0x70, 0xb0, 0x39, 
  0xa8, 0x0d, 0x5e, 0xba, 0x73, 0x5b, 0x8f, 0xbd, 0x1c, 0x24, 0x34, 0xbc, 
  0x3f, 0x68, 0xab, 0xbe, 0xaf, 0xe5, 0x4c, 0x3d, 0x4f, 0x8d, 0xcd, 0x3e, 
  0x0e, 0xa4, 0x0a, 0xbc, 0x30, 0xb9, 0x52, 0x3a, 0x23, 0x55, 0x0c, 0xbe, 
  0x2b, 0xb3, 0xb7, 0x3e, 0x1f, 0xaf, 0x11, 0xbc, 0xe8, 0x3e, 0xb0, 0xbe, 
  0x8c, 0x9b, 0x28, 0xbd, 0x32, 0x20, 0x45, 0xbf, 0xdd, 0xba, 0x0d, 0xbd, 
  0xe2, 0xa3, 0xab, 0xbe, 0x72, 0x0f, 0xfa, 0x3d, 0x98, 0xc6, 0x2f, 0xbf, 
  0x8a, 0x0c, 0x13, 0x3c, 0xba, 0x01, 0x9f, 0xbe, 0x8d, 0x5e, 0xf4, 0x3c, 
  0xd9, 0x48, 0xd3, 0xbe, 0x56, 0x9e, 0xee, 0xbc, 0xf2, 0x79, 0x7e, 0x3b, 
  0x18, 0xe0, 0x32, 0x3e, 0x27, 0x90, 0x62, 0xbb, 0xba, 0xd5, 0x6c, 0xbe, 
  0x00, 0x52, 0x58, 0xbe, 0x42, 0x43, 0xb5, 0x3c, 0x54, 0x74, 0x08, 0x3f, 
  0x8e, 0x3a, 0x52, 0xbc, 0x8e, 0xd3, 0x00, 0x3f, 0xb4, 0x5a, 0xcc, 0x38, 
  0x68, 0x68, 0x20, 0xbe, 0x69, 0xb7, 0xf8, 0x3d, 0x83, 0xe2, 0xbb, 0x3e, 
  0x83, 0xd2, 0xfc, 0x3d, 0x6e, 0xa9, 0xe0, 0x3e, 0x82, 0x2d, 0x91, 0x3c, 
  0xb8, 0x40, 0xdf, 0x3e, 0xaf, 0xca, 0xf9, 0xbc, 0x1e, 0x75, 0xde, 0xbe, 
  0x0c, 0x31, 0x3a, 0x3d, 0xf7, 0x16, 0xda, 0x3e, 0x7f, 0xa8, 0x89, 0x3c, 
  0xa3, 0x83, 0xfa, 0x3e, 0x7c, 0x25, 0x68, 0xbb, 0xa9, 0x25, 0xd0, 0xbe, 
  0x61, 0xb0, 0x01, 0xbd, 0x49, 0x67, 0xaf, 0xbd, 0x9a, 0x4b, 0x7d, 0xbe, 
  0xb4, 0xf9, 0xa4, 0x3e, 0x37, 0x25, 0x23, 0xba, 0x87, 0xfe, 0xd6, 0x3e, 
  0x28, 0x6b, 0x7b, 0x3d, 0x1c, 0x14, 0xe4, 0xbd, 0xa8, 0x0b, 0xae, 0xbc, 
  0x7c, 0x5e, 0x9e, 0x3d, 0xbb, 0xfe, 0x27, 0xbe, 0x31, 0x38, 0x3c, 0x3b, 
  0x9d, 0xce, 0x08, 0x3c, 0x55, 0x43, 0x28, 0xbf, 0x3f, 0x5a, 0x95, 0x3c, 
  0x70, 0x33, 0x04, 0xbf, 0x51, 0xf5, 0xd6, 0xbc, 0xde, 0x15, 0xab, 0xbe, 
  0xc1, 0x3a, 0x00, 0x3b, 0x77, 0x52, 0x35, 0xbe, 0x33, 0xc3, 0xb2, 0xbe, 
  0x48, 0xa7, 0xc0, 0xbe, 0x92, 0x85, 0xb0, 0x3b, 0x22, 0xdc, 0xff, 0xff, 
  0x04, 0x00, 0x00, 0x00, 0x00, 0x01, 0x00, 0x00, 0xee, 0x8a, 0x73, 0xbe, 
  0xa8, 0xff, 0x9e, 0x3d, 0xde, 0x6e, 0xa9, 0xbe, 0x96, 0x8e, 0xf8, 0xbc, 
  0x63, 0x60, 0xc8, 0xbe, 0x19, 0x8e, 0xca, 0x3c, 0xd1, 0x4c, 0x94, 0xbe, 
  0x0b, 0xc1, 0x9a, 0xbe, 0x94, 0x7f, 0xf3, 0xbd, 0xb7, 0x80, 0x1a, 0xbe, 
  0x43, 0x01, 0x2e, 0xbe, 0xfa, 0x39, 0x14, 0x3e, 0x00, 0xbd, 0x89, 0x3e, 
  0x01, 0x29, 0xf0, 0xbc, 0x4d, 0xbd, 0x25, 0xbe, 0x4b, 0x82, 0x13, 0x3e, 
  0x7a, 0x5b, 0x4d, 0xbe, 0x10, 0xc2, 0x52, 0xbe, 0x3a, 0x31, 0x4c, 0xbe, 
  0xa6, 0x0b, 0x91, 0xbe, 0x5e, 0x66, 0x6a, 0xbe, 0x16, 0x12, 0x4f, 0xbe, 
  0xee, 0xb5, 0x01, 0xbe, 0x55, 0x6b, 0xf5, 0x3d, 0x4d, 0x3a, 0xcf, 0x3d, 
  0x34, 0x9b, 0xa7, 0xbd, 0xc2, 0x20, 0x67, 0xbe, 0xea, 0x63, 0x4f, 0xbd, 
  0xef, 0xca, 0x79, 0xbc, 0xe6, 0xfe, 0xd8, 0x3d, 0x74, 0x12, 0x8a, 0xbe, 
  0x07, 0x59, 0x65, 0xbe, 0x5d, 0x5b, 0xf6, 0xbd, 0x0e, 0x63, 0x70, 0xbe, 
  0x6a, 0x69, 0x8f, 0xbe, 0xfc, 0xe7, 0x11, 0xbe, 0x2f, 0x4c, 0xcc, 0x3d, 
  0x75, 0xa8, 0xa2, 0xbd, 0xd7, 0x28, 0x5e, 0xbe, 0xcf, 0xba, 0xa6, 0xbe, 
  0x9d, 0xe3, 0x2b, 0xbe, 0x5a, 0xcf, 0x75, 0xbe, 0x65, 0xa3, 0x1c, 0xbe, 
  0x27, 0x79, 0xaa, 0xbe, 0x40, 0x28, 0x19, 0x3e, 0x5d, 0x9c, 0x85, 0x3d, 
  0xdd, 0x58, 0x25, 0xbe, 0x31, 0x4a, 0x6e, 0xbe, 0x1b, 0x0c, 0x96, 0xbe, 
  0x38, 0x24, 0xb0, 0x3e, 0xbe, 0x62, 0x80, 0xbe, 0x91, 0x42, 0x24, 0x3e, 
  0xf6, 0x44, 0x9b, 0x3e, 0x1e, 0x8c, 0x1b, 0xbe, 0x67, 0xae, 0xd9, 0xbe, 
  0xdb, 0xd9, 0x77, 0x3d, 0xa4, 0xa0, 0x51, 0x3e, 0xf4, 0x34, 0x00, 0xbe, 
  0xb5, 0xcb, 0xb1, 0xbc, 0x8e, 0xb0, 0x5a, 0xbd, 0x77, 0x00, 0x30, 0xbd, 
  0x5f, 0xe7, 0x7c, 0xbe, 0x24, 0xb5, 0x32, 0xbe, 0x0a, 0x22, 0x84, 0xbe, 
  0x2e, 0xdd, 0xff, 0xff, 0x04, 0x00, 0x00, 0x00, 0x80, 0x00, 0x00, 0x00, 
  0x68, 0x10, 0x1d, 0x3e, 0xc6, 0x2b, 0x10, 0xbe, 0x6c, 0x37, 0xbf, 0xbe, 
  0x73, 0xd0, 0xc4, 0x3d, 0x67, 0xd7, 0x6e, 0xbd, 0xc7, 0x83, 0x14, 0x3e, 
  0xc6, 0x78, 0xc6, 0x3d, 0x0a, 0xc7, 0xb8, 0x3e, 0xa0, 0x78, 0xc4, 0xbe, 
  0x09, 0xd8, 0x48, 0x3d, 0x70, 0x4b, 0xef, 0xbe, 0x58, 0xb8, 0x8c, 0x3d, 
  0xb9, 0xf8, 0x81, 0x3e, 0x29, 0x57, 0x27, 0x3e, 0x58, 0xdb, 0x34, 0x3e, 
  0x85, 0xa4, 0x8c, 0xbd, 0xe0, 0x6a, 0x05, 0xbe, 0x2d, 0x79, 0xc2, 0xbe, 
  0xb2, 0x02, 0xbd, 0xbe, 0x13, 0x72, 0xb0, 0xbd, 0x89, 0x6d, 0x08, 0x3e, 
  0x66, 0xfe, 0x2e, 0xbe, 0xa7, 0x2b, 0x02, 0xbf, 0x5b, 0x21, 0xdf, 0x3e, 
  0x32, 0xe8, 0x0a, 0xbf, 0xf3, 0x2d, 0x25, 0x3e, 0xc5, 0x3a, 0x36, 0x3e, 
  0x6d, 0x6d, 0x0c, 0x3e, 0x9b, 0x97, 0x3c, 0x3e, 0x67, 0x43, 0x82, 0x3e, 
  0x1d, 0xba, 0x2b, 0xbe, 0x47, 0x50, 0xbc, 0xbe, 0xba, 0xdd, 0xff, 0xff, 
  0x04, 0x00, 0x00, 0x00, 0x0c, 0x00, 0x00, 0x00, 0xbe, 0xc4, 0x36, 0xbe, 
  0x0e, 0x1d, 0x0c, 0x3e, 0xb9, 0x87, 0x0e, 0x3c, 0xd2, 0xdd, 0xff, 0xff, 
  0x04, 0x00, 0x00, 0x00, 0x00, 0x20, 0x00, 0x00, 0xf5, 0x6a, 0x2d, 0xbe, 
  0x62, 0x5b, 0xc0, 0xbe, 0xe3, 0xda, 0x8c, 0x3c, 0x64, 0xec, 0xbb, 0x3c, 
  0x2e, 0x2e, 0x54, 0xbe, 0x62, 0x5e, 0xd9, 0x3e, 0xb8, 0x9a, 0x73, 0x3d, 
  0x96, 0x9c, 0xad, 0xbe, 0x00, 0xd5, 0x97, 0x3e, 0x4b, 0x5d, 0x5d, 0x3e, 
  0xf7, 0x57, 0x03, 0xbe, 0x2d, 0xc0, 0x9c, 0x3c, 0xa8, 0x07, 0xda, 0x3d, 
  0x05, 0x01, 0x79, 0xbd, 0xdf, 0xac, 0x51, 0xbe, 0x5f, 0xff, 0x75, 0xbf, 
  0x26, 0x7a, 0x9a, 0xbe, 0x48, 0xe1, 0x87, 0xbd, 0xd7, 0xeb, 0x12, 0xbe, 
  0x72, 0x56, 0xa9, 0x3d, 0x79, 0x65, 0x98, 0xbe, 0x7c, 0x60, 0x8c, 0xbe, 
  0x9a, 0xe5, 0x50, 0xbe, 0xce, 0x94, 0xf2, 0xbc, 0x39, 0xd3, 0xa9, 0x3e, 
  0xa9, 0x33, 0xac, 0x3e, 0xa7, 0xad, 0x8d, 0xbe, 0x2f, 0x1a, 0x9e, 0xbd, 
  0x1d, 0x6c, 0x6f, 0x3e, 0xd5, 0xfb, 0x45, 0x3d, 0xa2, 0xee, 0xfe, 0xbe, 
  0xbf, 0xaa, 0xd7, 0x3c, 0xdf, 0xbc, 0xc1, 0xbe, 0x67, 0x47, 0x17, 0xbe, 
  0x06, 0xf8, 0x3d, 0xbc, 0xa8, 0xac, 0x66, 0x3e, 0x81, 0x07, 0xc7, 0x3e, 
  0xfa, 0x58, 0xbb, 0x3e, 0x19, 0x25, 0xe8, 0xbe, 0x4b, 0x56, 0x15, 0xbe, 
  0x9f, 0x05, 0x28, 0xbe, 0xe1, 0x07, 0xa2, 0xbe, 0x0a, 0x17, 0x31, 0xbe, 
  0x2d, 0xc1, 0x6c, 0xbc, 0xb8, 0x64, 0x80, 0xbf, 0x3f, 0xfc, 0x95, 0x3d, 
  0x05, 0xc0, 0xad, 0xbe, 0x32, 0x1f, 0xf0, 0xbe, 0x1e, 0x8c, 0x1f, 0x3e, 
  0x33, 0x7a, 0xab, 0x3e, 0xb0, 0xb6, 0x01, 0x3e, 0x1b, 0x9c, 0x58, 0xbf, 
  0x70, 0xb9, 0x9f, 0x3e, 0x9b, 0x28, 0xd6, 0x3c, 0x62, 0x69, 0x66, 0xbe, 
  0x0d, 0x21, 0x8d, 0xbe, 0x10, 0x4a, 0x90, 0x3d, 0xae, 0x1c, 0xc3, 0xbc, 
  0x3a, 0x96, 0xe1, 0x3d, 0x71, 0xd1, 0x02, 0xbd, 0x61, 0xa2, 0x2e, 0x3d, 
  0xbe, 0xd8, 0xe5, 0xbe, 0x1d, 0x3c, 0x05, 0x3e, 0x30, 0x97, 0xe8, 0x3d, 
  0xae, 0x94, 0xc5, 0xbd, 0x4c, 0xbe, 0x72, 0xbe, 0x10, 0xf8, 0xd2, 0x3d, 
  0x21, 0x82, 0x5e, 0x3d, 0xa8, 0xa4, 0x07, 0xbd, 0x27, 0xe4, 0xca, 0x3c, 
  0xcf, 0xc3, 0xae, 0xbb, 0x12, 0xbe, 0xc2, 0x3e, 0xb0, 0x34, 0x1b, 0x3e, 
  0x2c, 0xd2, 0x0c, 0xbf, 0xbc, 0xc5, 0xff, 0xbe, 0x5c, 0xa8, 0xc6, 0xbd, 
  0x8c, 0xfb, 0x14, 0xbd, 0xe9, 0x7e, 0x02, 0xbf, 0x1d, 0xba, 0x50, 0x3d, 
  0xf9, 0x95, 0xce, 0x3d, 0xd6, 0xc7, 0x83, 0xbe, 0x32, 0x1b, 0x01, 0xbe, 
  0x59, 0xd7, 0x4d, 0xbe, 0xaf, 0x74, 0xa9, 0x3e, 0x3b, 0xec, 0x30, 0x3c, 
  0x77, 0xef, 0xbf, 0x3e, 0xe5, 0xcc, 0x1c, 0x3d, 0xf2, 0xf5, 0x00, 0x3e, 
  0x48, 0x54, 0x03, 0x3d, 0xac, 0xf3, 0xc4, 0xbd, 0x3f, 0xb1, 0x2f, 0x3d, 
  0xc5, 0xa1, 0x88, 0xbe, 0x29, 0xd9, 0xf8, 0x3d, 0x74, 0x9e, 0xc5, 0xbc, 
  0x50, 0x52, 0xa1, 0x3c, 0xd1, 0xd4, 0x32, 0xbe, 0xc4, 0x6c, 0xbe, 0xbe, 
  0x64, 0x72, 0xfe, 0x3d, 0x88, 0x90, 0xb8, 0x3e, 0xc5, 0x96, 0x8a, 0x3c, 
  0x70, 0x26, 0xfe, 0xbd, 0x3e, 0xb0, 0x0a, 0x3e, 0x60, 0x60, 0x49, 0x3e, 
  0x5d, 0x9c, 0x8f, 0xbd, 0x1f, 0x26, 0x61, 0xbe, 0x16, 0x02, 0x97, 0xbe, 
  0xd0, 0xa8, 0xaa, 0x3d, 0x0c, 0xf6, 0x4d, 0xbe, 0xcc, 0x6a, 0x1f, 0xbe, 
  0x1b, 0x9c, 0x70, 0x3d, 0x9c, 0xd8, 0x93, 0xbd, 0x79, 0x59, 0xc1, 0x3d, 
  0xfe, 0x65, 0x38, 0xbc, 0xd8, 0x91, 0x34, 0xbe, 0x6c, 0x67, 0x5e, 0xbd, 
  0x51, 0x38, 0x56, 0xbe, 0x70, 0x74, 0xda, 0x3d, 0x34, 0x63, 0x67, 0xbd, 
  0x6f, 0x70, 0x8b, 0xbc, 0x2a, 0x9e, 0x3b, 0xbe, 0x74, 0x6e, 0x66, 0xbe, 
  0x94, 0xc8, 0xd9, 0xbd, 0x29, 0x9c, 0x73, 0xbe, 0x79, 0xcd, 0x07, 0x3d, 
  0x56, 0x48, 0x85, 0x3c, 0xcc, 0xac, 0xae, 0x3e, 0xc5, 0x2f, 0x9b, 0xbd, 
  0x9e, 0x8c, 0xb0, 0x3d, 0xe8, 0xb6, 0xb2, 0xbc, 0xa1, 0x2d, 0x62, 0xbe, 
  0xe9, 0x74, 0x98, 0x3e, 0x81, 0x4a, 0x1c, 0x3e, 0x65, 0x30, 0xae, 0x3e, 
  0xf2, 0xa6, 0xb7, 0xbd, 0xe3, 0xc3, 0xd6, 0x3d, 0xdb, 0xdc, 0x07, 0x3f, 
  0x9a, 0x81, 0x4d, 0x3e, 0xae, 0x8a, 0x6c, 0xbe, 0x01, 0x72, 0x61, 0xbe, 
  0x85, 0x3a, 0xc6, 0xbd, 0xd8, 0x3d, 0x48, 0xbe, 0xd8, 0xe0, 0x51, 0xbd, 
  0xef, 0xe9, 0x11, 0x3f, 0xbc, 0xd6, 0x11, 0x3e, 0x36, 0x62, 0x43, 0x3e, 
  0x9a, 0x73, 0x60, 0xbd, 0x21, 0xe0, 0xc1, 0xbd, 0x41, 0x45, 0xdd, 0x3e, 
  0xe1, 0x5e, 0x1c, 0x3e, 0xe9, 0xf5, 0xe4, 0x3e, 0xf4, 0x1e, 0x1d, 0xbe, 
  0x19, 0x67, 0x6f, 0xbd, 0x97, 0x66, 0x1d, 0xbd, 0xa1, 0x3f, 0xcd, 0x3d, 
  0xea, 0x64, 0x20, 0x3c, 0xd6, 0x95, 0xd7, 0xbe, 0x76, 0x6e, 0x9e, 0x3d, 
  0x5d, 0xe6, 0x45, 0xbe, 0x9c, 0x04, 0x36, 0x3f, 0xb3, 0xd2, 0x70, 0xbc, 
  0x22, 0xf6, 0xa6, 0x3d, 0x0c, 0x9d, 0x0d, 0x3d, 0x83, 0x45, 0x04, 0x3f, 
  0xec, 0x4e, 0xd3, 0x3d, 0xfc, 0x7f, 0xbd, 0x3d, 0xa4, 0x96, 0x66, 0x3d, 
  0xc1, 0x0e, 0x11, 0x3f, 0xf4, 0xbd, 0x00, 0x3f, 0xed, 0x84, 0x0c, 0x3e, 
  0xcf, 0xc4, 0xbe, 0xbb, 0x03, 0x0a, 0x41, 0x3e, 0x22, 0x08, 0xee, 0x3d, 
  0xd4, 0x93, 0x46, 0x3e, 0xe6, 0x4f, 0x56, 0xbe, 0xdc, 0x29, 0xf3, 0xbc, 
  0x1f, 0xc4, 0x87, 0x3d, 0x09, 0x20, 0x35, 0xbe, 0x8a, 0x9d, 0x7e, 0x3c, 
  0xb1, 0xb8, 0xe8, 0xbd, 0xf4, 0x55, 0xaf, 0x3b, 0x70, 0xb2, 0x01, 0xbe, 
  0x96, 0x05, 0x69, 0x3d, 0x50, 0xd9, 0x7e, 0xbd, 0xa8, 0x90, 0xea, 0xbd, 
  0x91, 0x2c, 0x80, 0xbe, 0xbf, 0xad, 0x12, 0xbd, 0xa5, 0x8d, 0x41, 0xbe, 
  0x37, 0x39, 0xc4, 0xbb, 0x9e, 0x05, 0x25, 0xbd, 0x23, 0x3d, 0x2a, 0x3f, 
  0xac, 0xbb, 0x12, 0xbe, 0x56, 0xd2, 0xd0, 0x3d, 0x6f, 0x4c, 0xd8, 0xbd, 
  0xeb, 0xa4, 0x9a, 0x3d, 0x6b, 0xe2, 0xa0, 0x3d, 0x03, 0xd6, 0x80, 0x3e, 
  0x1c, 0x8b, 0x75, 0x3c, 0x8d, 0xa5, 0x33, 0x3e, 0xce, 0xa7, 0xf3, 0xbd, 
  0x2e, 0x65, 0x78, 0xbe, 0x3e, 0xb8, 0xd8, 0x3d, 0xb7, 0x15, 0x44, 0xbe, 
  0xda, 0xd4, 0x11, 0x3d, 0x93, 0x9a, 0x6c, 0xbe, 0x2d, 0x46, 0x36, 0x3d, 
  0x7e, 0x09, 0x01, 0xbe, 0xca, 0x78, 0xa6, 0xbe, 0x05, 0x69, 0x89, 0xbe, 
  0xed, 0xa6, 0x25, 0xbe, 0xc5, 0x67, 0x61, 0xbe, 0x1e, 0xc5, 0x38, 0x3e, 
  0xae, 0x45, 0xde, 0xbe, 0x53, 0xf4, 0x8d, 0xbe, 0x08, 0x4c, 0xab, 0xbe, 
  0xff, 0x03, 0x62, 0x3c, 0x26, 0xff, 0x68, 0x3e, 0x67, 0x0e, 0x8a, 0x3c, 
  0xba, 0xcb, 0xb1, 0x3e, 0xa1, 0xcd, 0x94, 0xbd, 0x4a, 0x7c, 0x17, 0x3e, 
  0x57, 0x36, 0xcb, 0x3c, 0x44, 0x45, 0x4f, 0x3d, 0x8f, 0x7f, 0xe6, 0xbe, 
  0x2d, 0x83, 0x56, 0x3d, 0x89, 0x6d, 0x40, 0xbe, 0x2e, 0x07, 0xff, 0x3c, 
  0x9c, 0xbd, 0xc2, 0xbe, 0xfd, 0xb1, 0x84, 0x3d, 0xcc, 0xe5, 0x28, 0x3e, 
  0x2d, 0x63, 0x37, 0x3d, 0x2f, 0xa9, 0x42, 0xbe, 0x46, 0x82, 0xd3, 0xbe, 
  0xaa, 0x92, 0xe1, 0xbd, 0x9e, 0xe3, 0x91, 0xbe, 0x56, 0xb7, 0x26, 0xbe, 
  0xdf, 0x07, 0x01, 0x3d, 0xdb, 0x4a, 0x33, 0xbe, 0xb8, 0xd5, 0x42, 0x3e, 
  0xb1, 0x5c, 0x3d, 0xbe, 0xf2, 0x44, 0x25, 0x3e, 0xab, 0xc6, 0x56, 0x3d, 
  0x2b, 0x29, 0x01, 0xbd, 0x16, 0x2c, 0x52, 0x3d, 0x63, 0x93, 0xb1, 0xbe, 
  0x63, 0xe0, 0xd3, 0x3c, 0xed, 0x0e, 0xff, 0xbd, 0x32, 0x37, 0x52, 0xbe, 
  0x58, 0x4b, 0x82, 0xbe, 0x2b, 0xee, 0xe5, 0x3c, 0xfa, 0xa1, 0x25, 0xbc, 
  0xa5, 0x0f, 0x72, 0xbe, 0xbf, 0xa4, 0x9d, 0x3e, 0xab, 0x27, 0xc9, 0x3e, 
  0xfa, 0x80, 0x0b, 0xbf, 0x55, 0xd3, 0x6a, 0xbb, 0x94, 0x8b, 0x84, 0x3b, 
  0x9d, 0x3a, 0x81, 0xbd, 0x72, 0x4e, 0x72, 0x3d, 0x00, 0x16, 0x96, 0x3d, 
  0x27, 0x2b, 0xe6, 0x3d, 0x94, 0x1c, 0x2c, 0x3c, 0xdf, 0x63, 0xe0, 0xbd, 
  0x3f, 0x9d, 0x27, 0x3e, 0x5f, 0x19, 0x20, 0xbe, 0x86, 0x09, 0x76, 0x3e, 
  0xf4, 0x6a, 0x8a, 0x3e, 0x0b, 0x1f, 0x4f, 0x3e, 0x82, 0x35, 0x91, 0xbe, 
  0xc0, 0x42, 0x93, 0xbc, 0xbf, 0xc5, 0x88, 0x3d, 0x78, 0xde, 0x8f, 0xbe, 
  0xac, 0xec, 0x52, 0x3b, 0x35, 0x1d, 0xf0, 0xbc, 0x60, 0x45, 0xdf, 0x3c, 
  0x4b, 0x18, 0x76, 0x3d, 0xc0, 0x3f, 0x23, 0xbe, 0xd0, 0x4f, 0x42, 0xbd, 
  0x69, 0xf6, 0x26, 0xbe, 0xf3, 0x7c, 0x83, 0xbe, 0xc7, 0x8f, 0xd4, 0x3c, 
  0x95, 0x8a, 0x96, 0x3e, 0x84, 0x9c, 0xa6, 0x3e, 0x1b, 0x08, 0x70, 0x3e, 
  0x04, 0xa2, 0x13, 0xbe, 0xdc, 0x43, 0x47, 0x3e, 0x27, 0xfe, 0xaa, 0x3c, 
  0x07, 0xea, 0xdb, 0xbe, 0x36, 0xee, 0x54, 0xbd, 0x66, 0xf5, 0x9c, 0x3e, 
  0x22, 0x0b, 0x43, 0xbc, 0x8d, 0x07, 0x6b, 0xbe, 0xd1, 0x7f, 0xc9, 0xbd, 
  0x19, 0xee, 0x1d, 0x3d, 0x3e, 0xa1, 0x28, 0x3e, 0x96, 0x53, 0x82, 0xbe, 
  0x68, 0x16, 0xdf, 0xbe, 0x9a, 0x1e, 0x84, 0x3e, 0x74, 0xe4, 0x7a, 0x3e, 
  0x80, 0xaa, 0x8f, 0xbe, 0xa0, 0x51, 0xe4, 0x3d, 0x94, 0x6a, 0xc2, 0x3d, 
  0xd5, 0xb9, 0x7b, 0x3e, 0xd2, 0x92, 0x5f, 0x3e, 0xf3, 0x72, 0xac, 0x3e, 
  0x8e, 0xe3, 0x31, 0xbd, 0x71, 0x43, 0x3e, 0x3e, 0x1f, 0xee, 0x5e, 0x3e, 
  0x04, 0x77, 0xf4, 0x3d, 0xec, 0x38, 0x99, 0xbd, 0x00, 0xc1, 0x0d, 0xbe, 
  0x96, 0xc8, 0x8a, 0xbe, 0x0b, 0x51, 0x81, 0xbe, 0x74, 0xfd, 0x67, 0xbe, 
  0x8d, 0x75, 0xfb, 0xbd, 0x06, 0xae, 0x23, 0xbe, 0x0d, 0x88, 0x86, 0x3e, 
  0xfd, 0xdd, 0x61, 0x3e, 0xcb, 0xc3, 0x41, 0xbd, 0xe1, 0xea, 0x59, 0xbe, 
  0x05, 0xee, 0x82, 0xbe, 0xa7, 0x04, 0x07, 0xbe, 0xc8, 0x50, 0x73, 0x3e, 
  0x76, 0xfb, 0x9a, 0xbe, 0x50, 0x76, 0xd4, 0xbe, 0x81, 0x66, 0x65, 0xbe, 
  0x04, 0x14, 0x3a, 0xbf, 0x21, 0x54, 0x44, 0xbd, 0x2f, 0xa7, 0x6f, 0xbe, 
  0x02, 0xd3, 0xa6, 0xbe, 0x4b, 0x0d, 0x22, 0xbe, 0x26, 0xdc, 0xd2, 0xbd, 
  0x4a, 0xf4, 0xe6, 0x3d, 0x2b, 0xd5, 0x8f, 0xbd, 0x94, 0x5b, 0xeb, 0xbd, 
  0x08, 0x32, 0x6e, 0xbc, 0x84, 0x46, 0x69, 0x3e, 0x59, 0x2f, 0x2d, 0x3d, 
  0x18, 0x61, 0x01, 0x3d, 0x96, 0xc2, 0x9d, 0xbe, 0x89, 0xe4, 0x8d, 0x3d, 
  0x4d, 0x3d, 0xe3, 0xbd, 0x55, 0xca, 0x05, 0x3e, 0x83, 0xae, 0xaf, 0xbd, 
  0xbc, 0x47, 0x42, 0xbf, 0x7f, 0x19, 0x0d, 0xbf, 0x29, 0x20, 0xdd, 0xbd, 
  0x72, 0xe5, 0x70, 0xbe, 0xdd, 0x69, 0x1b, 0x3e, 0x9a, 0xd5, 0x06, 0x3e, 
  0x68, 0xcf, 0xd6, 0xbc, 0xe5, 0xf9, 0x2d, 0x3e, 0x84, 0xb7, 0x28, 0x3d, 
  0x61, 0xef, 0x19, 0xbe, 0x80, 0x81, 0xac, 0x3e, 0x33, 0x8c, 0x29, 0x3e, 
  0xd0, 0xf1, 0xe3, 0xbd, 0x93, 0x59, 0x71, 0xbf, 0x99, 0x8d, 0x65, 0xbe, 
  0x26, 0xc5, 0xfc, 0xbc, 0x01, 0x50, 0x19, 0x3e, 0x73, 0xfe, 0x60, 0xbd, 
  0x76, 0x23, 0x02, 0xbe, 0x2e, 0xe2, 0xe2, 0x3c, 0xab, 0x48, 0xa0, 0x3e, 
  0x25, 0x32, 0x93, 0x3e, 0xc8, 0x22, 0x44, 0xbd, 0x7c, 0x87, 0xb3, 0x3d, 
  0x42, 0x61, 0xa7, 0x3e, 0x9c, 0x82, 0x3b, 0x3e, 0x51, 0x15, 0x8a, 0xbf, 
  0x8f, 0x80, 0x3f, 0x3d, 0xaf, 0xca, 0x92, 0x3e, 0x1a, 0x0e, 0xaf, 0xbf, 
  0xe8, 0xf3, 0xe4, 0xbe, 0xff, 0x9d, 0x2b, 0xbf, 0x20, 0x7d, 0xf2, 0x3d, 
  0x29, 0xee, 0x21, 0x3e, 0x89, 0xb7, 0x5c, 0x3e, 0xf1, 0x89, 0x7f, 0x3e, 
  0xfb, 0x4b, 0x99, 0x3b, 0xf6, 0xe9, 0x17, 0x3d, 0xaf, 0x95, 0x06, 0x3e, 
  0x89, 0x1e, 0xb0, 0xbe, 0xda, 0x15, 0x1a, 0x3e, 0x5f, 0x06, 0x8c, 0xbe, 
  0x95, 0x7e, 0x45, 0x3d, 0x30, 0xee, 0xbe, 0xbe, 0x73, 0xa5, 0x02, 0xbe, 
  0x19, 0xf2, 0x8d, 0xbe, 0x43, 0xcd, 0xd7, 0xbe, 0xbd, 0x41, 0x88, 0x3d, 
  0xa6, 0x38, 0x3f, 0x3e, 0xb1, 0x8f, 0x49, 0xbe, 0x61, 0xd2, 0x47, 0x3c, 
  0x2d, 0xf8, 0x88, 0x3d, 0x1f, 0xb5, 0x76, 0xbd, 0xc1, 0x46, 0x34, 0x3e, 
  0x69, 0xba, 0xe7, 0xbd, 0x8d, 0x43, 0xd1, 0x3d, 0x52, 0xb3, 0x9b, 0x3d, 
  0x02, 0x18, 0x03, 0x3d, 0x2a, 0xef, 0x5a, 0x3e, 0xcd, 0x1d, 0xb5, 0xbe, 
  0x5c, 0x16, 0x47, 0x3e, 0x70, 0xf2, 0x1a, 0x3e, 0x8d, 0x97, 0x2e, 0xbd, 
  0x56, 0xd8, 0x08, 0xbe, 0x24, 0x6b, 0xca, 0xbe, 0x27, 0x7a, 0x10, 0xbf, 
  0x96, 0xbe, 0xb3, 0xbd, 0xf4, 0xc7, 0xa3, 0x3d, 0xcf, 0x7e, 0x90, 0xbd, 
  0xdd, 0x41, 0xa0, 0x3c, 0xfb, 0x9d, 0x43, 0x3e, 0xfc, 0x8e, 0x8e, 0xbe, 
  0xec, 0x26, 0x8a, 0x3e, 0x65, 0x9f, 0x06, 0x3e, 0x4b, 0xe7, 0x8a, 0x3e, 
  0x8a, 0xd8, 0xd4, 0x3d, 0x1c, 0x2b, 0xa8, 0xbe, 0x0e, 0xcc, 0xf3, 0xbe, 
  0x5d, 0xfc, 0x23, 0xbe, 0xd4, 0x15, 0xda, 0xbc, 0x84, 0xfe, 0x9c, 0x3d, 
  0x97, 0xb5, 0x61, 0xbe, 0x4d, 0x51, 0xdc, 0x3b, 0x61, 0xe7, 0xd1, 0x3d, 
  0x12, 0x74, 0x7b, 0x3c, 0xce, 0xd1, 0x88, 0xba, 0xee, 0x6c, 0x31, 0xbe, 
  0x67, 0x5e, 0x4a, 0x3e, 0x97, 0x5f, 0x8a, 0x3e, 0x6b, 0x3a, 0x7a, 0x3d, 
  0x3e, 0x77, 0x98, 0xbe, 0x82, 0xe4, 0x9e, 0x3e, 0xa7, 0xed, 0x12, 0xbe, 
  0x25, 0x34, 0x0f, 0xbf, 0xd7, 0x59, 0x63, 0xbe, 0x49, 0xde, 0x08, 0xbf, 
  0x37, 0x8f, 0xc9, 0xbc, 0xee, 0x95, 0x31, 0x3e, 0x8e, 0x04, 0x4b, 0xbd, 
  0xf3, 0xc9, 0xdf, 0xbd, 0x65, 0x59, 0x40, 0xbe, 0xfe, 0x74, 0x50, 0xbe, 
  0x78, 0xd6, 0x25, 0x3e, 0xbb, 0xb6, 0x30, 0xbe, 0x06, 0xa3, 0xec, 0x3b, 
  0xe2, 0x3c, 0x9c, 0x3e, 0x59, 0x9d, 0x75, 0x3e, 0x9b, 0x01, 0x85, 0xbe, 
  0xbb, 0xae, 0x20, 0xbf, 0xdd, 0xb6, 0x67, 0xbd, 0x04, 0xbf, 0xb4, 0x3d, 
  0x38, 0xb5, 0x2f, 0xbf, 0xeb, 0x5d, 0xf1, 0x3d, 0x57, 0x23, 0x60, 0xbf, 
  0x72, 0xf6, 0x1b, 0x3e, 0x96, 0x02, 0x28, 0x3e, 0x2d, 0xe8, 0x94, 0x3d, 
  0x85, 0x92, 0x04, 0x3e, 0x32, 0x6d, 0x01, 0xbe, 0xff, 0x6a, 0x4e, 0x3d, 
  0x41, 0x23, 0x28, 0x3d, 0xa3, 0xc4, 0xdc, 0xbe, 0x08, 0x58, 0x57, 0x3d, 
  0x38, 0x32, 0x10, 0xbe, 0xb4, 0x56, 0x66, 0xbe, 0x09, 0xcd, 0x75, 0xbe, 
  0x16, 0x54, 0x82, 0xbe, 0xdc, 0x21, 0x7f, 0x3e, 0x73, 0x70, 0x02, 0x3e, 
  0x5a, 0x7c, 0xb5, 0x3c, 0x42, 0xb7, 0x65, 0xbf, 0xcd, 0x6b, 0x09, 0xbe, 
  0x29, 0xf1, 0x81, 0x3d, 0xb5, 0x89, 0x8d, 0xbd, 0x4b, 0x6a, 0x86, 0x3e, 
  0x82, 0x0e, 0xc7, 0xbd, 0x17, 0x5a, 0x0c, 0xbf, 0xfd, 0x67, 0xba, 0x3d, 
  0x24, 0xda, 0x28, 0xbf, 0x3e, 0x91, 0x98, 0xbd, 0xe9, 0xb1, 0x38, 0xbf, 
  0x5f, 0x7c, 0x9f, 0xbd, 0x00, 0x6f, 0x52, 0xbf, 0x51, 0xc5, 0x25, 0x3c, 
  0x94, 0x1a, 0x96, 0xbe, 0x2a, 0x03, 0x85, 0x3e, 0xec, 0xc9, 0x20, 0x3e, 
  0x15, 0x5d, 0x1e, 0x3d, 0x3e, 0x2d, 0x2e, 0xbf, 0xf3, 0x0f, 0x24, 0x3e, 
  0x88, 0x62, 0x25, 0x3c, 0x63, 0x3d, 0xfe, 0x3d, 0x4a, 0x23, 0x8e, 0xbe, 
  0xb5, 0x24, 0x43, 0xbf, 0x4a, 0xea, 0x09, 0x3e, 0x4d, 0x52, 0x2e, 0xbf, 
  0x77, 0x4c, 0xa3, 0xbd, 0x1f, 0xd1, 0x01, 0xbc, 0x91, 0x5d, 0x86, 0x3e, 
  0x2a, 0xbd, 0xe3, 0xbd, 0xd0, 0x37, 0xe8, 0x3b, 0xf4, 0x72, 0xef, 0x3c, 
  0x85, 0xba, 0xe6, 0x3d, 0x4c, 0xd0, 0x2c, 0x3e, 0x64, 0xf0, 0x82, 0xbf, 
  0x6d, 0x29, 0x51, 0xbf, 0x28, 0x1a, 0x3c, 0x3d, 0xb5, 0xf4, 0x0a, 0x3c, 
  0xd5, 0x9e, 0xe8, 0xbe, 0x3d, 0x51, 0x37, 0x3c, 0x39, 0x4f, 0x60, 0x3e, 
  0x5f, 0x75, 0x24, 0x3f, 0x4a, 0x83, 0x9d, 0x3d, 0xcd, 0xd0, 0x14, 0x3f, 
  0xc5, 0x73, 0x42, 0xbe, 0x75, 0x16, 0x8d, 0x3e, 0x9d, 0xc7, 0x42, 0x3f, 
  0x6b, 0x56, 0x3c, 0xbd, 0x18, 0x35, 0x5c, 0x3e, 0x4c, 0xb1, 0xa0, 0xbd, 
  0xc7, 0x2a, 0x79, 0xbe, 0x54, 0x3a, 0xfb, 0xbd, 0x95, 0x6e, 0xe8, 0x3d, 
  0xcb, 0x82, 0xf4, 0x3e, 0xea, 0x34, 0xd0, 0x3b, 0xbb, 0x20, 0x86, 0x3d, 
  0x20, 0xda, 0xf4, 0x3c, 0xd6, 0xab, 0xb6, 0x3d, 0xcf, 0x5d, 0x0b, 0x3f, 
  0xa6, 0x26, 0x26, 0x3e, 0x74, 0x52, 0x14, 0x3f, 0x3a, 0x62, 0x2b, 0x3e, 
  0x19, 0x1f, 0xc6, 0x3d, 0xac, 0x4b, 0xfc, 0x3d, 0xbf, 0xa2, 0x50, 0x3e, 
  0xf5, 0x73, 0x51, 0x3e, 0xc8, 0xdb, 0xc6, 0x3b, 0xf2, 0x90, 0x91, 0xbd, 
  0x9c, 0x2f, 0xb9, 0xbe, 0xd5, 0x26, 0x19, 0x3f, 0xea, 0x95, 0xef, 0x3d, 
  0x60, 0x9b, 0x70, 0x3e, 0x40, 0xfa, 0x28, 0xbd, 0x3f, 0xbc, 0xa4, 0x3e, 
  0x51, 0x4c, 0xc9, 0x3d, 0x43, 0xaa, 0xe2, 0xbd, 0x60, 0x04, 0xf9, 0x3d, 
  0x36, 0xb5, 0x93, 0x3e, 0xd7, 0x9b, 0xca, 0x3e, 0x4b, 0xc8, 0x55, 0x3e, 
  0x03, 0xf4, 0x8c, 0x3d, 0x40, 0x87, 0x2e, 0x3f, 0x5b, 0x32, 0x03, 0xbd, 
  0x16, 0xf6, 0x6c, 0x3c, 0x88, 0x92, 0x02, 0x3e, 0xbc, 0x10, 0x38, 0xbd, 
  0xa2, 0xcc, 0x8a, 0xbd, 0x1b, 0x41, 0x90, 0x3c, 0x76, 0x45, 0x85, 0xbe, 
  0xa0, 0xe1, 0x94, 0x3e, 0x40, 0xe8, 0x30, 0x3e, 0x43, 0x6e, 0x56, 0x3d, 
  0xab, 0x5e, 0x5a, 0xbd, 0x16, 0x12, 0x4c, 0x3f, 0x44, 0xdd, 0x5d, 0x3e, 
  0x44, 0xeb, 0x2c, 0xbe, 0xf9, 0x17, 0x34, 0x3d, 0x0b, 0x1b, 0x4c, 0x3e, 
  0xbf, 0xf5, 0xe6, 0x3d, 0xde, 0x0c, 0x27, 0xbd, 0xc1, 0x36, 0x37, 0x3f, 
  0x61, 0xaf, 0x83, 0xbc, 0xe9, 0x87, 0xc0, 0x3e, 0x30, 0xf1, 0xc0, 0x3d, 
  0x6c, 0x3f, 0xff, 0x3d, 0x1c, 0x99, 0xc7, 0xbe, 0x22, 0x53, 0x90, 0x3e, 
  0x46, 0x3a, 0x9a, 0x3c, 0xcf, 0x7c, 0xca, 0x3d, 0xc2, 0x16, 0x27, 0xbe, 
  0xe2, 0x0e, 0x28, 0xbf, 0x84, 0xf7, 0xad, 0x3e, 0x21, 0xc3, 0x22, 0xbe, 
  0xe7, 0x3a, 0x41, 0xbd, 0x91, 0x0c, 0x10, 0xbe, 0xa1, 0xc9, 0x92, 0xbd, 
  0xa1, 0x1c, 0x2b, 0x3e, 0xd9, 0x56, 0x06, 0xbf, 0xb9, 0x21, 0x60, 0xbd, 
  0x6b, 0x25, 0x21, 0x3c, 0x36, 0xb3, 0x0c, 0xbe, 0x86, 0x09, 0xa3, 0x3a, 
  0x2c, 0xf8, 0x9f, 0xbe, 0x6d, 0xb9, 0x07, 0xbe, 0xc3, 0x6c, 0x2b, 0xbf, 
  0xcc, 0x6b, 0x1b, 0x3e, 0x95, 0x30, 0xd9, 0x3d, 0xe9, 0x1e, 0x16, 0xbd, 
  0x3c, 0x89, 0x91, 0x3d, 0xcf, 0x41, 0x80, 0xbe, 0xb2, 0x2f, 0x7c, 0x3d, 
  0xe1, 0x43, 0xf9, 0x3c, 0x43, 0x06, 0x30, 0xbe, 0x89, 0x00, 0x0e, 0xbf, 
  0x3f, 0x9e, 0xa8, 0xbe, 0xba, 0x6c, 0xa1, 0xbe, 0x7b, 0x09, 0xe6, 0x3d, 
  0x49, 0xdb, 0xa8, 0xbe, 0x4f, 0x6a, 0xa3, 0x3e, 0x93, 0x99, 0x01, 0xbd, 
  0x2f, 0xda, 0x64, 0x3e, 0x74, 0x49, 0x86, 0xbe, 0xc9, 0x5e, 0xed, 0xbe, 
  0x06, 0x47, 0x1e, 0xbe, 0xc8, 0x03, 0x78, 0x3c, 0xd9, 0x79, 0x90, 0xbe, 
  0x58, 0xf5, 0x2c, 0xbd, 0xdf, 0x76, 0xe6, 0xbe, 0xa6, 0xa0, 0xe4, 0x3d, 
  0x2f, 0x3d, 0x7b, 0x3c, 0x0d, 0xfc, 0x12, 0xbe, 0xd3, 0x03, 0x1f, 0x3d, 
  0xaa, 0xe5, 0x6c, 0x3e, 0x63, 0xa8, 0x08, 0x3e, 0x59, 0xbc, 0xdf, 0xbe, 
  0xe7, 0xda, 0x94, 0x3e, 0x47, 0xc3, 0x84, 0x3d, 0x3a, 0x4c, 0xd2, 0x3d, 
  0xf2, 0x89, 0xb2, 0xbd, 0x62, 0x7d, 0x27, 0xbe, 0xe2, 0x4e, 0x53, 0xbe, 
  0xc0, 0xac, 0xeb, 0xbc, 0xa7, 0x4b, 0xc0, 0x3e, 0x11, 0x85, 0xef, 0x3d, 
  0x2c, 0x4f, 0x4d, 0xbf, 0xd6, 0x1e, 0x02, 0x3d, 0x1d, 0x69, 0xe7, 0x3d, 
  0x70, 0xb7, 0x28, 0x3d, 0xa6, 0x59, 0xf2, 0xbd, 0x08, 0xd5, 0x1a, 0x3f, 
  0x44, 0x80, 0x9c, 0x3d, 0x1d, 0xce, 0xb1, 0x3e, 0x93, 0x3f, 0x7f, 0x3c, 
  0x94, 0x4e, 0x8e, 0x3e, 0xb1, 0x45, 0x58, 0x3f, 0x13, 0xc6, 0xb8, 0x3e, 
  0x0c, 0xc6, 0xeb, 0x3c, 0x5d, 0x62, 0x88, 0x3e, 0xda, 0xf6, 0xaf, 0xbd, 
  0x6a, 0x79, 0xbc, 0xbc, 0xfc, 0x02, 0xbc, 0x3d, 0x87, 0x37, 0xf5, 0x3e, 
  0x7a, 0x78, 0xd1, 0x3d, 0x7d, 0x6a, 0x00, 0x3e, 0x12, 0xb7, 0xce, 0x3d, 
  0xad, 0x9a, 0xc7, 0x3d, 0xce, 0xca, 0x4e, 0x3e, 0xf8, 0x08, 0xa5, 0x3e, 
  0x78, 0xb5, 0xf5, 0x3e, 0xdd, 0x78, 0x63, 0x3d, 0x14, 0x5b, 0x9a, 0xbd, 
  0x46, 0x46, 0xb5, 0x3d, 0x76, 0x4f, 0xa5, 0x3e, 0x04, 0xc2, 0xab, 0x3e, 
  0xea, 0x2b, 0x26, 0xbc, 0x97, 0x58, 0x39, 0x3e, 0x52, 0x26, 0x3b, 0xbe, 
  0x7c, 0xd4, 0xd9, 0x3e, 0x63, 0xe5, 0x53, 0xbd, 0x06, 0xad, 0x65, 0x3b, 
  0xd6, 0xa1, 0xd3, 0x3e, 0xaa, 0xc2, 0x08, 0x3f, 0x85, 0x96, 0x38, 0x3d, 
  0x22, 0x51, 0xfc, 0xbc, 0x39, 0x4d, 0xea, 0x3d, 0x82, 0x19, 0x44, 0x3f, 
  0x06, 0x61, 0xc4, 0x3e, 0x8b, 0x9d, 0xdb, 0x3d, 0x54, 0x67, 0x5c, 0x3d, 
  0xab, 0x42, 0xe0, 0x3e, 0x03, 0x99, 0x2d, 0x3e, 0xe9, 0x58, 0x6e, 0x3e, 
  0x3e, 0xb0, 0x9a, 0x3d, 0x18, 0x09, 0x7d, 0x3e, 0x5e, 0x62, 0xa2, 0x3e, 
  0x86, 0xb8, 0x0d, 0x3e, 0xa4, 0x46, 0x1f, 0x3e, 0x1e, 0xbd, 0x01, 0x3e, 
  0x21, 0x89, 0xcf, 0x3c, 0x3f, 0x95, 0x59, 0x3e, 0x26, 0x28, 0x82, 0x3d, 
  0x58, 0xd4, 0x43, 0x3f, 0x51, 0xf4, 0x43, 0x3b, 0x99, 0x22, 0x21, 0xbe, 
  0xdc, 0xb1, 0xc5, 0xbd, 0x96, 0xe5, 0x49, 0xbd, 0x5f, 0x74, 0x2d, 0x3e, 
  0xeb, 0x0c, 0xce, 0x3d, 0x9f, 0x8a, 0x32, 0x3f, 0xd2, 0x19, 0x44, 0x3b, 
  0x50, 0x2e, 0xc4, 0x3e, 0x04, 0x12, 0x0a, 0xbd, 0xff, 0x71, 0xdb, 0xbc, 
  0xaf, 0x65, 0x30, 0xbe, 0x03, 0xd0, 0x8f, 0x3d, 0xec, 0xfb, 0x61, 0xbe, 
  0x0c, 0x70, 0x83, 0x3e, 0x68, 0x97, 0x49, 0xbe, 0x8b, 0x78, 0xae, 0xbe, 
  0x3b, 0x97, 0x36, 0x3d, 0x8e, 0x6c, 0x0a, 0x3e, 0x99, 0x8e, 0x14, 0xbd, 
  0xae, 0x75, 0x3f, 0xbe, 0xf5, 0xea, 0xd9, 0x3d, 0x97, 0x10, 0xbb, 0xbd, 
  0x6a, 0xdf, 0x0f, 0xbf, 0x02, 0x06, 0xb7, 0xbe, 0x3a, 0x91, 0xaf, 0x3d, 
  0xc6, 0x81, 0x87, 0xbd, 0x69, 0xde, 0xcf, 0x3d, 0xab, 0x8a, 0xdb, 0xbe, 
  0xef, 0xa6, 0xec, 0x3c, 0x71, 0x3d, 0xa4, 0xbe, 0x59, 0x44, 0x5f, 0xbe, 
  0xe1, 0xc5, 0x7a, 0x3e, 0xd2, 0x70, 0x1c, 0x3e, 0x9c, 0x17, 0x80, 0x3e, 
  0x08, 0xe2, 0xdb, 0x3d, 0x0e, 0xc8, 0xdb, 0xbd, 0xa3, 0xa6, 0xd7, 0x3d, 
  0xbf, 0xe9, 0x12, 0xbe, 0xdc, 0xd4, 0xc0, 0xbd, 0xe1, 0x5a, 0xb7, 0xbd, 
  0x2d, 0xbd, 0x59, 0x3e, 0x9f, 0x95, 0x00, 0xbe, 0xc0, 0xa2, 0xc9, 0xbe, 
  0xb1, 0xfe, 0x0b, 0x3e, 0x48, 0x63, 0x6f, 0x3d, 0xea, 0x62, 0x1b, 0x3e, 
  0x4d, 0x79, 0x1a, 0xbe, 0x94, 0xf8, 0xdb, 0xbe, 0x55, 0xe5, 0xdb, 0xbd, 
  0x22, 0x97, 0x45, 0xbe, 0xba, 0x09, 0xa2, 0xbe, 0x25, 0x8b, 0xae, 0x3d, 
  0x83, 0xd6, 0xbb, 0xbe, 0x9d, 0x38, 0x12, 0x3e, 0xce, 0x1a, 0x6e, 0xbe, 
  0x2f, 0x51, 0xcb, 0x3d, 0xb5, 0x57, 0x31, 0x3d, 0x95, 0xf6, 0x9b, 0x3e, 
  0x47, 0xe2, 0x52, 0x3e, 0x2f, 0x0d, 0x2a, 0xbf, 0x49, 0x1b, 0x28, 0x3e, 
  0x74, 0x4f, 0x89, 0x3e, 0x8c, 0xe3, 0x95, 0xbe, 0x0f, 0x6d, 0xad, 0xbe, 
  0xd5, 0x13, 0x64, 0xbd, 0xfe, 0x53, 0xf3, 0xbd, 0xed, 0x5b, 0x2a, 0xbe, 
  0x61, 0xe5, 0x80, 0x3e, 0xb7, 0x8c, 0x42, 0x3e, 0x03, 0x6b, 0x0e, 0xbf, 
  0xe5, 0x11, 0xbe, 0xbd, 0x72, 0xb0, 0xa4, 0xbe, 0x3b, 0x70, 0xc0, 0xbe, 
  0xc7, 0xa5, 0x82, 0x3c, 0x2a, 0x28, 0x5a, 0xbd, 0x45, 0x06, 0x56, 0x3d, 
  0x19, 0x30, 0x28, 0xbe, 0xb0, 0xa2, 0x64, 0x3e, 0xad, 0x68, 0x68, 0xbe, 
  0xfc, 0xdf, 0xea, 0xbe, 0xa6, 0x67, 0xc9, 0x3e, 0xff, 0x99, 0x85, 0x3d, 
  0xc0, 0xeb, 0x8a, 0xbc, 0x96, 0x97, 0xee, 0x3d, 0xa2, 0x35, 0x07, 0x3e, 
  0x15, 0x5f, 0x71, 0xbe, 0xf4, 0x42, 0x5e, 0xbe, 0x2a, 0xee, 0xa5, 0xbf, 
  0x04, 0x87, 0x01, 0xbf, 0xfa, 0xef, 0x8c, 0xbd, 0xa8, 0x14, 0x1c, 0xbe, 
  0x26, 0xcf, 0xd1, 0xbe, 0x4c, 0xcd, 0x33, 0xbd, 0xfd, 0x05, 0xf0, 0xbe, 
  0xbf, 0x30, 0xe8, 0xbd, 0x2d, 0xe4, 0xca, 0x3d, 0x8b, 0xd1, 0xbd, 0x3e, 
  0xd1, 0x3c, 0xd9, 0x3d, 0x2b, 0xad, 0x15, 0xbe, 0xc5, 0x09, 0x89, 0xbd, 
  0x1c, 0xd8, 0x07, 0xbd, 0x64, 0xd0, 0x9e, 0xbd, 0xbb, 0x8b, 0xe2, 0xbd, 
  0x84, 0x59, 0x46, 0xbe, 0x69, 0xf2, 0x3d, 0x3c, 0x6f, 0x41, 0xb3, 0x3d, 
  0x8f, 0x89, 0x7d, 0xbe, 0x22, 0x7a, 0x9c, 0x3e, 0x79, 0x78, 0x58, 0x3e, 
  0x01, 0x91, 0x9e, 0x3e, 0x7a, 0x24, 0xb1, 0xbe, 0x06, 0xce, 0xb9, 0xbe, 
  0xe6, 0x94, 0x77, 0xbc, 0x8c, 0xae, 0xbf, 0x3d, 0x51, 0x05, 0xd9, 0xbe, 
  0xd3, 0xf5, 0x9a, 0x3d, 0xde, 0xc7, 0x90, 0xbf, 0xc7, 0x1e, 0xf8, 0x3d, 
  0xf9, 0xb0, 0x6c, 0xbe, 0x56, 0xd3, 0x74, 0xbe, 0xf9, 0x0d, 0x32, 0xbc, 
  0x25, 0x04, 0x27, 0x3e, 0xa0, 0xe0, 0x27, 0xbe, 0xc7, 0xc5, 0x90, 0xbf, 
  0xa3, 0x73, 0xf4, 0x3e, 0x44, 0xc4, 0x11, 0x3d, 0x9e, 0xbb, 0x8c, 0xbe, 
  0x5f, 0x07, 0x84, 0xbd, 0x6e, 0xd5, 0x16, 0xbe, 0x00, 0xef, 0x9c, 0xbe, 
  0x2c, 0x24, 0x73, 0xbd, 0x9f, 0x00, 0xe0, 0x3c, 0x2e, 0x94, 0xc5, 0x3e, 
  0x07, 0xd0, 0x9e, 0xbe, 0x24, 0x76, 0x96, 0x3e, 0x7c, 0xa6, 0x21, 0x3d, 
  0x3a, 0x71, 0x88, 0x3d, 0x50, 0x94, 0x58, 0xbe, 0xd7, 0x7c, 0x19, 0xbd, 
  0xb0, 0x07, 0xab, 0xbe, 0xce, 0x07, 0xc9, 0xbe, 0x5d, 0x43, 0x19, 0xbf, 
  0xda, 0x0e, 0x72, 0x3e, 0x1b, 0x5c, 0x39, 0xbe, 0xb4, 0xc2, 0x02, 0x3e, 
  0x7e, 0x04, 0x43, 0x3d, 0x91, 0x8b, 0x0f, 0xbe, 0x45, 0xe2, 0x5f, 0x3e, 
  0xdf, 0x31, 0x67, 0x3e, 0xa2, 0x6b, 0x6c, 0xbd, 0xe6, 0x35, 0x34, 0xbd, 
  0x87, 0x78, 0x15, 0x3e, 0xc3, 0x92, 0x3c, 0x3e, 0x45, 0xc8, 0x1c, 0xbd, 
  0x86, 0xf1, 0x77, 0x3d, 0x32, 0x85, 0x82, 0xbe, 0x88, 0x07, 0x87, 0xbe, 
  0xbf, 0x4f, 0x11, 0xbd, 0x39, 0x2d, 0x0c, 0xbe, 0x85, 0xb2, 0x12, 0xbf, 
  0xf2, 0x33, 0x12, 0xbf, 0x00, 0x9b, 0x89, 0xbd, 0xfe, 0x67, 0x86, 0xbd, 
  0x63, 0x95, 0xcc, 0x3d, 0xcc, 0xa3, 0xa9, 0x3d, 0xa4, 0xcc, 0x3d, 0x3e, 
  0x6b, 0xe9, 0x82, 0xbe, 0x61, 0xd7, 0xd0, 0x3d, 0x94, 0xf2, 0xe0, 0xbc, 
  0x44, 0x8b, 0xf5, 0xbd, 0x90, 0x76, 0x13, 0x3e, 0x8b, 0xd6, 0xc4, 0xbc, 
  0x14, 0x24, 0x0e, 0xbf, 0xc5, 0x57, 0x88, 0xbe, 0x24, 0xa6, 0x07, 0xbe, 
  0xc4, 0x14, 0xab, 0xbe, 0xda, 0x06, 0x59, 0xbe, 0xc2, 0xa3, 0xfa, 0xbc, 
  0x8b, 0x75, 0xa7, 0x3c, 0xaf, 0xa2, 0xc4, 0xbd, 0x5a, 0x2a, 0x1c, 0x3e, 
  0x84, 0xd3, 0x25, 0xbe, 0xc6, 0x9d, 0x2f, 0x3e, 0x95, 0xf5, 0xb7, 0x3d, 
  0x45, 0x6d, 0xbb, 0xbb, 0xe3, 0xf0, 0x36, 0xbf, 0xa2, 0x81, 0x91, 0x3e, 
  0x3d, 0xd5, 0xf6, 0xbd, 0x8b, 0x61, 0x3c, 0xbf, 0xb2, 0x2e, 0x45, 0xbe, 
  0x4e, 0x0e, 0xff, 0xbe, 0xf4, 0x50, 0x96, 0xbc, 0x7b, 0x7c, 0xb9, 0xbd, 
  0xf1, 0x1e, 0x82, 0xbc, 0x1f, 0xdc, 0xf0, 0xbd, 0xbb, 0xd4, 0x1d, 0xbe, 
  0x59, 0x09, 0xf6, 0x3d, 0x36, 0x8a, 0x05, 0x3e, 0x74, 0x64, 0xb9, 0xbe, 
  0xfa, 0xd2, 0xa4, 0xbe, 0x73, 0xb8, 0xe1, 0x3e, 0x79, 0x99, 0x40, 0x3d, 
  0xc6, 0xfe, 0x03, 0x3f, 0xb1, 0x3f, 0xa1, 0xbd, 0x99, 0x1f, 0xbd, 0x3e, 
  0x59, 0xad, 0x78, 0x3e, 0x02, 0xba, 0xf5, 0xbe, 0x10, 0x09, 0x97, 0x3e, 
  0x8c, 0x51, 0xb3, 0xbe, 0xf2, 0x0c, 0x8a, 0x3e, 0xaa, 0x6b, 0x6c, 0x3e, 
  0x13, 0xc4, 0x5f, 0x3d, 0xae, 0x0f, 0xbc, 0x3e, 0x3a, 0x84, 0xdf, 0x3d, 
  0xaf, 0x14, 0xc2, 0x3e, 0x6d, 0x4e, 0x8d, 0x3e, 0x9f, 0x21, 0x1a, 0xbe, 
  0x68, 0xf0, 0x66, 0x3e, 0x51, 0x84, 0x3e, 0x3e, 0x40, 0x7b, 0x4a, 0x3d, 
  0xc9, 0x75, 0x3e, 0x3e, 0xb6, 0x9f, 0xb1, 0x3e, 0xdb, 0xef, 0x09, 0x3e, 
  0xe1, 0x39, 0xf2, 0xbb, 0xf4, 0x09, 0xf7, 0x3d, 0xdd, 0x6c, 0x5f, 0xbe, 
  0x7a, 0xe3, 0x0f, 0x3e, 0x05, 0xb5, 0x0e, 0x3e, 0x02, 0x08, 0x02, 0xbe, 
  0x9d, 0xa2, 0x3f, 0xbd, 0xd0, 0xb3, 0xa0, 0x3e, 0xd9, 0xa3, 0x58, 0xbe, 
  0xe7, 0x98, 0x2d, 0x3e, 0x5b, 0x5f, 0x53, 0xbe, 0xcf, 0x93, 0x9c, 0x3e, 
  0xaa, 0x22, 0x05, 0x3d, 0x80, 0x44, 0x2e, 0x3e, 0x96, 0x3b, 0x7a, 0x3d, 
  0x7a, 0xfe, 0x08, 0x3e, 0xfa, 0xe3, 0x97, 0xbc, 0xec, 0x2c, 0x62, 0x3e, 
  0x93, 0x14, 0xdc, 0x3d, 0x39, 0x24, 0x0f, 0x3e, 0xcf, 0xa4, 0xd3, 0xbe, 
  0x6b, 0x30, 0x4b, 0xbd, 0xc0, 0x09, 0x41, 0x3e, 0x49, 0x66, 0xab, 0x3d, 
  0xe0, 0x7a, 0x68, 0xbe, 0xef, 0x38, 0xeb, 0xbc, 0x9b, 0x98, 0x86, 0x3e, 
  0x03, 0x10, 0x25, 0xbf, 0xe2, 0x8c, 0x50, 0x3e, 0x85, 0xa5, 0xc3, 0x3e, 
  0xd2, 0x89, 0x34, 0x3e, 0xcd, 0x1c, 0x11, 0x3f, 0xea, 0x2c, 0xfd, 0x3d, 
  0x75, 0x57, 0x80, 0x3e, 0x85, 0x5b, 0xb0, 0x3c, 0xd3, 0x32, 0x92, 0x3d, 
  0xd3, 0xec, 0x1f, 0xbe, 0xa5, 0xae, 0x02, 0xbe, 0x2c, 0xde, 0x8c, 0x3e, 
  0x31, 0x35, 0x51, 0x3e, 0xc2, 0x72, 0x84, 0xbc, 0x68, 0x61, 0x4e, 0x3e, 
  0x9e, 0xf2, 0xd0, 0x3d, 0x8d, 0xd9, 0x88, 0x3d, 0x63, 0x38, 0x06, 0xbe, 
  0x32, 0xb0, 0x1d, 0x3f, 0xb7, 0xbd, 0x32, 0x3e, 0x90, 0xd2, 0x3a, 0xbe, 
  0x8f, 0xf9, 0xe1, 0x3d, 0xfb, 0x4e, 0x88, 0xbc, 0x4a, 0x6e, 0xbf, 0x3d, 
  0xb5, 0xd4, 0x2a, 0x3e, 0x40, 0xa5, 0x6a, 0x3e, 0xcf, 0x04, 0x0b, 0xbe, 
  0xdd, 0x74, 0x76, 0x3e, 0xc7, 0xd1, 0x1f, 0xbe, 0x01, 0x7a, 0x9d, 0x3d, 
  0xbf, 0x5b, 0x16, 0xbd, 0xe7, 0x40, 0xc2, 0x3c, 0xb2, 0x70, 0x79, 0x3e, 
  0x34, 0xd5, 0xa4, 0xbd, 0xcd, 0xf0, 0xbc, 0xbd, 0x2b, 0xdd, 0xb8, 0x3d, 
  0xd5, 0xa7, 0x3b, 0xbd, 0x1d, 0x4a, 0x1b, 0xbd, 0x53, 0x9e, 0x7b, 0x3d, 
  0xe0, 0xc9, 0xc9, 0xbe, 0x2f, 0x05, 0x86, 0xbe, 0x37, 0x8a, 0x93, 0x3e, 
  0x61, 0x40, 0x6f, 0x3d, 0xa6, 0x60, 0x80, 0xbe, 0xc4, 0x2f, 0xa6, 0xbd, 
  0x80, 0x1b, 0x65, 0xbe, 0xc3, 0x3c, 0xdf, 0x3e, 0x8a, 0xfd, 0x86, 0x3e, 
  0x07, 0x4b, 0xe4, 0xbd, 0x02, 0xb3, 0x82, 0xbe, 0x8b, 0xfc, 0x8d, 0x3d, 
  0xc6, 0x52, 0x01, 0xbf, 0x04, 0xf1, 0x87, 0x3c, 0x19, 0x6c, 0x57, 0x3e, 
  0xf0, 0x17, 0x49, 0x3e, 0x19, 0x1d, 0xf5, 0x3d, 0x58, 0x05, 0x5b, 0xbe, 
  0xaf, 0x64, 0x53, 0x3e, 0xb1, 0x84, 0x90, 0x3d, 0xba, 0xc6, 0x37, 0xbe, 
  0xb6, 0xb8, 0xaf, 0xbc, 0x2f, 0x39, 0x92, 0xbe, 0xac, 0xcc, 0x82, 0xbe, 
  0x43, 0x50, 0xd5, 0xbd, 0xa4, 0x7a, 0x37, 0x3e, 0xa8, 0x59, 0x9b, 0xbb, 
  0xb9, 0x41, 0xd9, 0xbc, 0x13, 0x9b, 0x24, 0x3d, 0x97, 0xa1, 0xfa, 0x3e, 
  0x6d, 0x37, 0xba, 0xbd, 0x8f, 0xce, 0x0d, 0x3e, 0x6a, 0x07, 0x7b, 0x3e, 
  0x96, 0x31, 0xf9, 0xbd, 0xb2, 0x4d, 0x8f, 0xbe, 0x09, 0xc2, 0x04, 0xbe, 
  0xd3, 0x01, 0x4a, 0x3e, 0xf2, 0xdd, 0x2b, 0x3e, 0x82, 0x5d, 0x3f, 0xbe, 
  0xd7, 0x68, 0x88, 0x3c, 0xfa, 0x4e, 0x20, 0xbe, 0x22, 0xe6, 0x85, 0x3e, 
  0x1d, 0xfe, 0xbb, 0xbd, 0xca, 0xa1, 0x1b, 0xbe, 0x02, 0x20, 0x71, 0xbd, 
  0xb9, 0x28, 0x43, 0x3d, 0xc0, 0x56, 0xa4, 0xbe, 0xf8, 0xc0, 0x15, 0x3d, 
  0xd3, 0x21, 0x62, 0x3d, 0xac, 0xe5, 0xd3, 0x3e, 0x8e, 0x8f, 0x13, 0x3e, 
  0x5a, 0x72, 0xc7, 0x3c, 0x33, 0x1a, 0x17, 0x3e, 0x93, 0x06, 0x8f, 0xbd, 
  0x40, 0xae, 0x08, 0x3e, 0xba, 0xf2, 0x08, 0xbe, 0xf1, 0xb5, 0xa1, 0x3d, 
  0x59, 0x4c, 0xb2, 0x3e, 0x63, 0xd9, 0x9a, 0xbd, 0x46, 0xc5, 0xb2, 0x3d, 
  0x76, 0x3d, 0x9c, 0xbe, 0x78, 0x71, 0x06, 0xbe, 0x9a, 0x68, 0xb8, 0x3d, 
  0x8e, 0x4e, 0x33, 0x3e, 0x0e, 0xa1, 0x4a, 0x3e, 0xee, 0x47, 0x19, 0xbc, 
  0x1a, 0x6e, 0x44, 0xbe, 0xe7, 0xed, 0xa1, 0x3d, 0x72, 0x05, 0x29, 0xbe, 
  0x54, 0xbe, 0xee, 0xbc, 0xea, 0xb3, 0x21, 0x3e, 0x0a, 0xdc, 0x05, 0xbe, 
  0x33, 0xbc, 0x36, 0xbe, 0xc9, 0xef, 0x37, 0xbe, 0x71, 0xc9, 0x36, 0x3e, 
  0x9a, 0x4d, 0x3f, 0xbb, 0x77, 0xb2, 0x24, 0xbe, 0x45, 0xa4, 0xe4, 0xbb, 
  0x03, 0xe4, 0x42, 0xbe, 0x7f, 0xf1, 0xe4, 0x3e, 0xdc, 0xf5, 0x57, 0x3e, 
  0x7b, 0xa2, 0x73, 0xbd, 0x3e, 0x35, 0x9c, 0xbd, 0xfe, 0xe6, 0x48, 0x3e, 
  0x15, 0xc6, 0x9a, 0xbb, 0x94, 0xee, 0x8b, 0x3e, 0x62, 0x94, 0x80, 0xbe, 
  0x43, 0x11, 0x7c, 0x3d, 0xa9, 0xf6, 0xe5, 0xbd, 0x3c, 0xb2, 0x2c, 0xbc, 
  0x49, 0xb5, 0xd5, 0xbd, 0xd7, 0x1c, 0xf5, 0xbd, 0xa6, 0x1f, 0x45, 0x3e, 
  0x8e, 0x6a, 0x04, 0x3e, 0xc1, 0x57, 0x81, 0x3e, 0x7c, 0xba, 0x27, 0x3e, 
  0x56, 0xa5, 0x26, 0xbe, 0xbb, 0x88, 0x61, 0x3e, 0x08, 0xfb, 0x40, 0xbd, 
  0xc7, 0x14, 0x1a, 0x3e, 0x47, 0xd3, 0xa0, 0xbe, 0x3f, 0x73, 0xd2, 0x3d, 
  0x29, 0x42, 0x0b, 0x3e, 0x61, 0x0c, 0x90, 0x3e, 0x6a, 0xff, 0xd7, 0xbe, 
  0x17, 0x22, 0x30, 0x3e, 0x81, 0xe1, 0xb5, 0x3d, 0x76, 0x22, 0x5c, 0xbd, 
  0xf6, 0xdc, 0x40, 0x3e, 0xf2, 0x88, 0x67, 0x3d, 0x35, 0x83, 0xc4, 0x3e, 
  0xc1, 0x43, 0x9a, 0x3e, 0x8b, 0x5a, 0x1b, 0xbd, 0x96, 0x92, 0x50, 0xbd, 
  0x3e, 0x70, 0xd9, 0xbc, 0x8d, 0x9c, 0x81, 0x3e, 0xa1, 0xe8, 0xf2, 0xbd, 
  0x01, 0xdc, 0x1d, 0x3f, 0xc3, 0xd7, 0x29, 0xbe, 0x0b, 0x1a, 0xec, 0xbd, 
  0x34, 0xf5, 0xb9, 0xbd, 0x40, 0x2f, 0x79, 0x3d, 0xda, 0xfc, 0xa1, 0x3e, 
  0x5b, 0x65, 0xc5, 0x3d, 0xae, 0xfd, 0x44, 0x3f, 0x4a, 0xac, 0xfd, 0x3c, 
  0x11, 0x10, 0x3e, 0x3e, 0xd1, 0xcb, 0xf8, 0x3d, 0xa6, 0xc2, 0xb2, 0x3e, 
  0xe3, 0xfa, 0x28, 0x3e, 0xa3, 0x0b, 0xd4, 0x3b, 0x64, 0x75, 0xca, 0x3d, 
  0x40, 0x4f, 0xad, 0xbd, 0x7e, 0xde, 0x1b, 0x3f, 0x56, 0x21, 0x24, 0xbd, 
  0x31, 0x4a, 0xe0, 0x3d, 0x8f, 0x87, 0x98, 0xbc, 0x3a, 0x12, 0x03, 0x3f, 
  0x9c, 0x81, 0xe0, 0xbc, 0x9e, 0x49, 0x27, 0x3c, 0x4a, 0xb7, 0x90, 0x3e, 
  0x9c, 0x0f, 0xd5, 0x3e, 0x70, 0xb3, 0xf2, 0x3e, 0x1a, 0x3c, 0x96, 0x3d, 
  0x7c, 0xb9, 0x45, 0x3e, 0xc9, 0x01, 0x06, 0x3f, 0x2b, 0x23, 0x6a, 0x3d, 
  0xc9, 0xe7, 0x93, 0xbe, 0xcd, 0xbd, 0x63, 0xbd, 0xa4, 0x5a, 0xa3, 0xbe, 
  0xb6, 0x62, 0x3e, 0xbe, 0xb5, 0x6b, 0x03, 0x3e, 0xc9, 0x63, 0x08, 0x3c, 
  0xf1, 0xb4, 0x37, 0x3e, 0xf1, 0x8b, 0x5a, 0xbe, 0x71, 0xae, 0x16, 0x3d, 
  0x75, 0xec, 0x4d, 0x3d, 0x3a, 0x2d, 0xf7, 0xbc, 0xb1, 0x63, 0x96, 0x3c, 
  0x95, 0x86, 0x2d, 0x3d, 0x9f, 0xce, 0x0d, 0xbd, 0x07, 0x94, 0x5a, 0x3e, 
  0xd1, 0xf7, 0x27, 0x3e, 0x5d, 0x83, 0xfb, 0x3d, 0x84, 0x8a, 0x34, 0x3f, 
  0xf3, 0x9e, 0x1a, 0x3c, 0x54, 0xe5, 0x03, 0x3f, 0x10, 0xe5, 0xb9, 0x3e, 
  0x39, 0x4c, 0x01, 0x3e, 0x39, 0xc5, 0x64, 0x3e, 0x37, 0x77, 0x0a, 0x3d, 
  0xc3, 0x91, 0x0f, 0x3f, 0xc5, 0xae, 0x2c, 0x3e, 0xba, 0x1e, 0x71, 0xbd, 
  0x3f, 0x9b, 0xd1, 0xbc, 0xa3, 0x82, 0x3a, 0x3e, 0x93, 0x85, 0xdc, 0x3e, 
  0xcf, 0x28, 0x2c, 0x3e, 0xae, 0x47, 0x4c, 0xbe, 0x9c, 0xec, 0x14, 0xbe, 
  0xf9, 0xa4, 0xa7, 0xbd, 0xb6, 0x87, 0x1a, 0x3c, 0xe9, 0xe8, 0xe4, 0xbc, 
  0x6d, 0xcc, 0xb9, 0x3e, 0x77, 0xe1, 0x54, 0x3e, 0x74, 0x9f, 0xe2, 0x3d, 
  0x50, 0xd5, 0x4f, 0x3e, 0x7d, 0x93, 0xd0, 0x3d, 0x9b, 0xcf, 0x34, 0x3e, 
  0x82, 0x56, 0x6a, 0x3e, 0x93, 0xe2, 0x8a, 0x3e, 0x25, 0x01, 0x46, 0x3e, 
  0x24, 0x91, 0xd7, 0x3d, 0x17, 0x05, 0x9a, 0x3e, 0x82, 0x8b, 0xbd, 0x3a, 
  0x4b, 0xb6, 0x80, 0x3e, 0x37, 0x76, 0xb1, 0xba, 0xe7, 0xf5, 0xd1, 0x3e, 
  0x2a, 0xe5, 0x8c, 0x3e, 0xab, 0x08, 0x74, 0x3e, 0x5f, 0x11, 0x56, 0x3e, 
  0x59, 0x53, 0xe5, 0x3e, 0x96, 0x99, 0x6e, 0xbd, 0xfd, 0x48, 0xaa, 0x3e, 
  0xa6, 0x8f, 0x23, 0x3e, 0xa0, 0x2a, 0xe7, 0x3d, 0x1b, 0xfe, 0x59, 0x3e, 
  0x43, 0x64, 0x7b, 0x3e, 0xa2, 0x07, 0x8c, 0x3e, 0x6a, 0x15, 0xb6, 0x3e, 
  0x69, 0xd9, 0x6f, 0x3e, 0x71, 0x9e, 0xd1, 0x3d, 0x12, 0x44, 0x33, 0x3e, 
  0xd9, 0x38, 0x6f, 0x3e, 0xe4, 0x4f, 0x53, 0x3e, 0x83, 0xcd, 0x3b, 0x3d, 
  0x3e, 0xdc, 0xbb, 0xbc, 0x75, 0x77, 0x96, 0x3e, 0x7d, 0x8a, 0x9c, 0x3d, 
  0x16, 0xc0, 0x03, 0x3e, 0x6b, 0xac, 0x98, 0x3c, 0x83, 0x23, 0x42, 0x3f, 
  0xa9, 0x92, 0x17, 0x3e, 0xe3, 0x26, 0x1b, 0xbe, 0xc0, 0x86, 0x21, 0x3d, 
  0xeb, 0xe9, 0x06, 0x3e, 0xda, 0x31, 0xaf, 0x39, 0x41, 0x7d, 0xd9, 0x3c, 
  0x57, 0xe0, 0xcf, 0x3e, 0x73, 0x25, 0x97, 0x3e, 0xaa, 0xba, 0xc1, 0x3e, 
  0x4a, 0x3f, 0x27, 0x3e, 0xaf, 0xf5, 0x54, 0x3e, 0x8b, 0x43, 0xaa, 0x3e, 
  0x60, 0x14, 0x93, 0x3d, 0x05, 0xb1, 0x98, 0x3e, 0x50, 0x3c, 0x69, 0xbe, 
  0x6a, 0x41, 0x75, 0xbd, 0x4d, 0x45, 0x96, 0x3d, 0x7d, 0x41, 0x99, 0xbd, 
  0x97, 0x6b, 0x56, 0xbe, 0x9c, 0x13, 0x15, 0xbe, 0x51, 0x71, 0xf2, 0xbc, 
  0x60, 0x75, 0x82, 0xbe, 0xf2, 0x0a, 0x60, 0x3e, 0x99, 0x20, 0x2e, 0x3e, 
  0xd8, 0x75, 0x43, 0x3d, 0xef, 0x41, 0xf3, 0x3c, 0xbb, 0xcc, 0x9a, 0xbe, 
  0x63, 0x80, 0xc7, 0x3d, 0x0e, 0xcc, 0x3b, 0x3e, 0x00, 0x8f, 0x05, 0xbe, 
  0x81, 0xcf, 0x51, 0x3c, 0x13, 0xc5, 0xa4, 0xbd, 0x35, 0x16, 0x6d, 0xbd, 
  0x6a, 0xab, 0x15, 0x3e, 0x24, 0xdf, 0x36, 0xbe, 0x55, 0x0e, 0x0c, 0x3d, 
  0xac, 0xe6, 0x17, 0xbe, 0x5f, 0x1c, 0x6a, 0xbe, 0x71, 0x01, 0x4a, 0xbe, 
  0xba, 0xb1, 0x06, 0x3e, 0x07, 0x6c, 0x28, 0x3e, 0x88, 0x7d, 0x3d, 0xbe, 
  0x51, 0x49, 0x3f, 0xbe, 0xdb, 0xaf, 0x6e, 0xbe, 0x17, 0x38, 0x91, 0xbe, 
  0x61, 0x30, 0x29, 0x3e, 0x5a, 0x3f, 0x5e, 0x3e, 0x62, 0x55, 0xda, 0xbd, 
  0xf1, 0x50, 0x46, 0xbd, 0xfc, 0xf5, 0x68, 0x3e, 0xf9, 0xc2, 0x84, 0x3e, 
  0x7f, 0x69, 0x37, 0xbe, 0xed, 0x73, 0x0b, 0xbd, 0xf4, 0x58, 0x14, 0x3e, 
  0x90, 0x68, 0x24, 0xbe, 0x6d, 0x37, 0x8d, 0x3e, 0x1a, 0xa5, 0x03, 0x3e, 
  0x41, 0xf9, 0x24, 0x3c, 0x45, 0xf2, 0xb9, 0xbc, 0xf3, 0xba, 0x11, 0x3e, 
  0x85, 0xb2, 0xc8, 0xbd, 0x2e, 0x73, 0x1f, 0x3c, 0x33, 0x47, 0x5c, 0xbe, 
  0x55, 0xbb, 0x0a, 0x3b, 0x89, 0x84, 0x8c, 0x3e, 0xd1, 0x5b, 0xeb, 0x3d, 
  0xe2, 0xdb, 0xb5, 0x3d, 0x0c, 0xf2, 0xac, 0x3d, 0x32, 0x83, 0x33, 0x3e, 
  0x1b, 0xa8, 0x8c, 0xbe, 0x33, 0x67, 0xa2, 0xbd, 0x31, 0x98, 0x8a, 0x3e, 
  0x62, 0x52, 0xa9, 0x3d, 0xaf, 0x97, 0xd2, 0xbe, 0x08, 0x3b, 0x94, 0x3c, 
  0x61, 0xf0, 0xc0, 0xbe, 0xcd, 0x7c, 0x55, 0x3e, 0x98, 0x65, 0xad, 0xbd, 
  0xae, 0x02, 0x54, 0x3d, 0x32, 0xf0, 0x96, 0x3e, 0xb9, 0xe0, 0xdc, 0xbe, 
  0x89, 0x1a, 0x0f, 0xbe, 0xfd, 0xad, 0x31, 0x3b, 0xaa, 0xb8, 0x6f, 0xbe, 
  0x85, 0x40, 0x41, 0x3e, 0xdc, 0xda, 0x1e, 0x3c, 0x1f, 0x9a, 0xf3, 0x3d, 
  0x58, 0xec, 0x0e, 0xbf, 0x5d, 0x28, 0x75, 0x3e, 0x93, 0x9b, 0x0f, 0x3e, 
  0x46, 0x9d, 0xa2, 0xbe, 0x9b, 0xca, 0x11, 0xbe, 0xba, 0x7b, 0xae, 0x3d, 
  0xcb, 0x40, 0xde, 0xbb, 0x7f, 0x00, 0x02, 0xbc, 0x80, 0xd8, 0xc7, 0xbd, 
  0x1f, 0x83, 0x4c, 0xbf, 0xb1, 0x2e, 0x39, 0xbf, 0xda, 0x19, 0x3b, 0x3e, 
  0xb4, 0x60, 0x93, 0x3d, 0x9d, 0xc0, 0x51, 0xbe, 0x5d, 0xf6, 0x52, 0x3e, 
  0x6e, 0x9e, 0x5e, 0xbd, 0xfc, 0x3f, 0xca, 0xbe, 0x2d, 0x67, 0xe7, 0x3d, 
  0x40, 0x09, 0x8e, 0xbe, 0x28, 0x40, 0xe5, 0xbd, 0xa6, 0x06, 0xc0, 0xbe, 
  0x57, 0x18, 0xb0, 0xbe, 0xef, 0xa0, 0x5a, 0xbf, 0x60, 0xaf, 0x92, 0xbd, 
  0xe0, 0xc9, 0xa6, 0xbe, 0xb0, 0x55, 0xcb, 0xbc, 0x4e, 0xd8, 0x57, 0xbe, 
  0xe4, 0x30, 0x4f, 0xbe, 0xd4, 0x5a, 0x94, 0xbe, 0xfa, 0xdd, 0x90, 0x3d, 
  0xc6, 0xd5, 0xe2, 0xbd, 0x08, 0xf3, 0x3f, 0xbe, 0x68, 0x02, 0xb1, 0x3e, 
  0x31, 0x5f, 0x6f, 0xbd, 0x5b, 0x79, 0x9b, 0x3d, 0xae, 0x6e, 0x58, 0xbf, 
  0x36, 0x7b, 0xb8, 0x3e, 0x4e, 0x30, 0x6f, 0x3e, 0x68, 0xd1, 0x9e, 0xbe, 
  0x91, 0xb4, 0xba, 0xbc, 0x38, 0xec, 0x2f, 0xbf, 0x14, 0xc6, 0xd2, 0x3d, 
  0xc9, 0xbf, 0xde, 0x3d, 0x9b, 0x22, 0x3b, 0xbe, 0xb9, 0x32, 0x78, 0x3c, 
  0x1b, 0xa1, 0x04, 0xbe, 0x35, 0x17, 0x21, 0xbd, 0x85, 0xb5, 0x7b, 0xbe, 
  0xd9, 0x78, 0x29, 0xbe, 0xd9, 0x87, 0x3a, 0x3e, 0x72, 0xad, 0x99, 0x3d, 
  0xce, 0x48, 0xfa, 0x3d, 0xf8, 0xb3, 0xf3, 0x3c, 0x8e, 0x86, 0x73, 0xbd, 
  0x1a, 0xb6, 0xba, 0x3d, 0x22, 0xf0, 0xa5, 0x3d, 0x1e, 0x4c, 0x7c, 0xbe, 
  0x6f, 0xc6, 0x0d, 0x3e, 0xc6, 0x1f, 0x8d, 0x3d, 0x66, 0xeb, 0xb5, 0x3d, 
  0xfc, 0x76, 0x9e, 0x3e, 0x46, 0x5f, 0xce, 0x3c, 0xd3, 0x17, 0x29, 0xbd, 
  0x8f, 0x39, 0x19, 0x3e, 0xaa, 0x04, 0x3f, 0x3e, 0xdd, 0xeb, 0x1c, 0xbc, 
  0x52, 0x68, 0x6d, 0x3e, 0x88, 0x86, 0xcc, 0x3e, 0x4b, 0x18, 0xa9, 0x3d, 
  0x48, 0x08, 0x7f, 0x3e, 0xfa, 0x75, 0x9c, 0x3a, 0xb6, 0x3f, 0x72, 0xbe, 
  0x83, 0x51, 0x68, 0x3e, 0xd5, 0xfa, 0xff, 0x3d, 0x8e, 0x6e, 0x8c, 0xbd, 
  0x71, 0x15, 0xc3, 0x3d, 0xce, 0x0f, 0x18, 0x3e, 0xe3, 0x39, 0x1f, 0xbd, 
  0x8e, 0x0b, 0x1e, 0x3d, 0x91, 0xa7, 0x9d, 0x3c, 0xbf, 0xd0, 0xe1, 0x3d, 
  0x58, 0xae, 0xe5, 0xbd, 0x84, 0x1f, 0x8f, 0x3d, 0xeb, 0x45, 0xf8, 0x3d, 
  0xd6, 0x1f, 0x52, 0xbe, 0x75, 0xfe, 0x3a, 0x3e, 0xe9, 0x24, 0xd9, 0xbd, 
  0x36, 0x97, 0x7c, 0x3e, 0x22, 0xf3, 0x51, 0x3d, 0x2e, 0x49, 0x6a, 0xbd, 
  0x36, 0x7b, 0xa9, 0x3e, 0x29, 0x56, 0x89, 0x3d, 0x70, 0x65, 0x5e, 0xbe, 
  0x99, 0x80, 0x93, 0x3d, 0xa7, 0x83, 0xe7, 0x3d, 0xe7, 0xa8, 0x7e, 0x3e, 
  0x67, 0x4f, 0xb7, 0xbd, 0xd1, 0xd4, 0x55, 0x3e, 0x99, 0x2d, 0xc7, 0xbe, 
  0xc6, 0x8a, 0x20, 0xbd, 0x94, 0x9d, 0x3b, 0xbe, 0x70, 0x06, 0xe2, 0xbc, 
  0x83, 0x9d, 0x40, 0x3e, 0xd9, 0x2a, 0xa0, 0x3e, 0x50, 0xa6, 0xb2, 0x3e, 
  0x38, 0x2b, 0x38, 0x3e, 0x32, 0x35, 0xb7, 0xbd, 0xad, 0x17, 0x05, 0x3e, 
  0x46, 0x48, 0x60, 0xbe, 0x7e, 0xaa, 0x3f, 0xbe, 0xd4, 0x31, 0xf8, 0x3d, 
  0xe0, 0xbc, 0x0f, 0xbe, 0xc3, 0x1b, 0xc6, 0x3c, 0xf2, 0x04, 0xc9, 0x3d, 
  0x7f, 0x17, 0x95, 0x3e, 0x7f, 0x0f, 0x84, 0xbc, 0xcc, 0xc5, 0xa1, 0x3e, 
  0x3f, 0x54, 0xa2, 0x3e, 0x15, 0x06, 0xf3, 0x3e, 0xa3, 0xa5, 0x49, 0x3e, 
  0x1f, 0x0a, 0xa4, 0x3e, 0x76, 0x99, 0x8a, 0x3e, 0x8a, 0x86, 0x81, 0x3e, 
  0xfc, 0xf1, 0x79, 0x3e, 0x88, 0xd6, 0xf5, 0x3d, 0xdf, 0xa6, 0xb9, 0x3c, 
  0xec, 0x0d, 0xda, 0xbd, 0x47, 0x63, 0x0a, 0xbd, 0x92, 0xd9, 0x9e, 0x3e, 
  0x38, 0x26, 0x55, 0xbb, 0x5a, 0x4f, 0x08, 0x3e, 0x24, 0x42, 0x27, 0x3e, 
  0xf6, 0x86, 0xd3, 0x3e, 0x1d, 0xfc, 0x44, 0x3e, 0x72, 0x42, 0x79, 0x3e, 
  0x8f, 0xd3, 0x95, 0x3e, 0x9e, 0x6a, 0xda, 0xbd, 0xb4, 0xbc, 0xe0, 0x3c, 
  0x55, 0xa8, 0xd9, 0x3d, 0xb7, 0x50, 0x30, 0x3e, 0x15, 0x63, 0xc7, 0x3e, 
  0x36, 0x4f, 0x72, 0xbc, 0xba, 0xf6, 0x4e, 0xbe, 0xee, 0x90, 0x33, 0xbe, 
  0x41, 0x6d, 0x18, 0x3e, 0xa9, 0x1e, 0xa9, 0x3e, 0xbd, 0x3f, 0xae, 0xbd, 
  0x25, 0xe1, 0xcb, 0x3e, 0x29, 0xa4, 0x9a, 0x3e, 0x93, 0x4d, 0x9d, 0x3e, 
  0x16, 0x09, 0xf7, 0x3c, 0x5f, 0x80, 0x79, 0x3e, 0x27, 0x7f, 0x58, 0x3e, 
  0xeb, 0x9b, 0xf5, 0x3e, 0x8f, 0x0c, 0x22, 0x3d, 0x23, 0xef, 0x20, 0x3e, 
  0x92, 0x26, 0x08, 0x3e, 0xe1, 0x3c, 0xb1, 0x3e, 0x7a, 0x89, 0xf1, 0x3d, 
  0x37, 0x31, 0xc8, 0x3a, 0x9d, 0xf0, 0x81, 0x3d, 0x78, 0x3e, 0x6b, 0x3e, 
  0x0d, 0x5c, 0xc3, 0x3e, 0xd3, 0xd6, 0x40, 0x3e, 0x0c, 0x48, 0x9b, 0x3e, 
  0x1b, 0xf3, 0x8d, 0x3d, 0x43, 0xe0, 0xff, 0x3d, 0xf6, 0xca, 0xab, 0x3d, 
  0x51, 0xaa, 0x63, 0x3f, 0x0a, 0x58, 0xe8, 0x3d, 0x84, 0x13, 0x3a, 0xbe, 
  0xe1, 0x5f, 0xf0, 0x3d, 0x6a, 0xf1, 0x6e, 0xbd, 0x57, 0x00, 0xb5, 0x3d, 
  0x10, 0x16, 0x28, 0x3e, 0x6b, 0xe2, 0x29, 0x3e, 0x0f, 0xbc, 0x98, 0xbd, 
  0xfd, 0xd2, 0xf0, 0x3e, 0xb2, 0x2b, 0x3b, 0xbd, 0xda, 0x95, 0x20, 0xbe, 
  0x3a, 0x4c, 0xd3, 0x3c, 0x31, 0x4a, 0xff, 0xbe, 0x87, 0x54, 0xf1, 0xbc, 
  0x46, 0x72, 0xa1, 0x3b, 0x4e, 0x09, 0x69, 0xbf, 0x2d, 0x43, 0xe1, 0xbd, 
  0x66, 0x33, 0xe2, 0xbe, 0xf3, 0xb7, 0xa4, 0xbd, 0x50, 0x24, 0xee, 0x3c, 
  0xce, 0x53, 0xa2, 0x3e, 0x72, 0x90, 0x52, 0x3e, 0x74, 0x09, 0xd2, 0x3d, 
  0x33, 0x15, 0xd5, 0xbe, 0xb8, 0xa6, 0x8f, 0xbd, 0x84, 0x5a, 0x1a, 0xbf, 
  0x8b, 0x54, 0x57, 0x3e, 0x54, 0xbc, 0xeb, 0xbe, 0x34, 0xaa, 0x83, 0xbe, 
  0xbb, 0xda, 0x78, 0xbe, 0xa2, 0x35, 0xa2, 0xbe, 0xf6, 0x15, 0x56, 0x3e, 
  0xab, 0x04, 0x85, 0xbe, 0x07, 0x91, 0x22, 0x3d, 0x9d, 0x4c, 0x5a, 0xbf, 
  0x1c, 0xe0, 0xf0, 0xbe, 0x78, 0xda, 0xb0, 0x3d, 0xfe, 0x30, 0x2b, 0x3e, 
  0x00, 0x04, 0x78, 0x3e, 0x5f, 0x31, 0xca, 0x3c, 0x3d, 0x3a, 0x47, 0xbf, 
  0x08, 0x01, 0x23, 0x3e, 0xe6, 0xbf, 0x50, 0xbf, 0x2f, 0x11, 0x8e, 0xbe, 
  0x1a, 0xba, 0x60, 0xbf, 0xde, 0x78, 0xe5, 0x3c, 0xf0, 0x01, 0x21, 0xbf, 
  0xa2, 0x9b, 0x99, 0xbe, 0x1d, 0xfb, 0x5d, 0xbe, 0xce, 0x81, 0x39, 0x3c, 
  0xc5, 0x5c, 0x2a, 0x3d, 0x17, 0xa0, 0x96, 0x3d, 0xb0, 0x61, 0x19, 0xbf, 
  0xdc, 0x4f, 0x14, 0x3e, 0x6b, 0xef, 0xe1, 0x3a, 0x6c, 0xa0, 0x4d, 0xbe, 
  0xc6, 0x82, 0xf2, 0xbe, 0x1d, 0x67, 0x53, 0xbf, 0x31, 0xb1, 0x9b, 0x3b, 
  0xa1, 0xb1, 0x5c, 0xbf, 0x7b, 0xa4, 0x1a, 0x3d, 0xfc, 0x3a, 0x5c, 0x3e, 
  0x8f, 0x5c, 0x6b, 0xbc, 0x08, 0xc5, 0xc2, 0xbe, 0x98, 0xec, 0x52, 0x3d, 
  0x0b, 0x47, 0x18, 0x3e, 0xa0, 0x25, 0x8f, 0x3c, 0x00, 0xd7, 0x7b, 0xbd, 
  0x2e, 0x88, 0x2b, 0xbf, 0xa6, 0x31, 0x33, 0xbf, 0x81, 0x3a, 0xf9, 0xbd, 
  0x9b, 0xa9, 0xb6, 0xbd, 0x3b, 0x8a, 0xb6, 0xbe, 0xec, 0xcd, 0x10, 0xbd, 
  0xb6, 0x27, 0xae, 0x3d, 0x4b, 0xe5, 0xf9, 0x3e, 0x48, 0x24, 0x29, 0xbe, 
  0xf7, 0x23, 0x08, 0x3f, 0x2c, 0x10, 0x2f, 0xbf, 0x7d, 0xd0, 0xa3, 0x3e, 
  0x00, 0xf4, 0x73, 0x3d, 0x25, 0xf2, 0x45, 0x3e, 0xf1, 0xbd, 0x94, 0xbd, 
  0xae, 0xb1, 0xa3, 0x3d, 0xb4, 0xc4, 0x00, 0xbf, 0xb4, 0x4c, 0x46, 0xbf, 
  0x16, 0x15, 0x65, 0x3c, 0x5c, 0x78, 0x01, 0x3d, 0xfb, 0x86, 0x36, 0x3d, 
  0x40, 0xaf, 0xe7, 0x3d, 0x0e, 0x0a, 0xd7, 0x3c, 0xcf, 0xbe, 0x3d, 0x3e, 
  0xb1, 0xa3, 0x3b, 0x3d, 0x82, 0xcc, 0x2d, 0xbe, 0xcb, 0x13, 0xda, 0x3d, 
  0xe1, 0x87, 0x71, 0x3e, 0xb2, 0x14, 0xaa, 0xbe, 0x81, 0x44, 0xc8, 0xbe, 
  0xc4, 0x43, 0xd2, 0xbd, 0xbe, 0xcb, 0x15, 0x3e, 0xee, 0x28, 0x2a, 0x3d, 
  0x3a, 0xcb, 0x0d, 0x3e, 0x48, 0x73, 0x0a, 0xbe, 0xcf, 0xbf, 0xe5, 0x3d, 
  0xfe, 0xab, 0xc0, 0x3e, 0x4c, 0xb2, 0x21, 0x3e, 0x87, 0x0b, 0x1d, 0x3e, 
  0x05, 0x78, 0xe1, 0x3d, 0xd8, 0x42, 0x44, 0xbe, 0x53, 0x18, 0x91, 0xbd, 
  0x52, 0x5d, 0x83, 0xbe, 0xd8, 0x1f, 0x85, 0xbe, 0x39, 0x79, 0x21, 0xbe, 
  0x96, 0x2c, 0x74, 0x3e, 0x51, 0x83, 0x03, 0x3e, 0xde, 0xff, 0x0e, 0xbe, 
  0x3e, 0x07, 0x96, 0x3e, 0x63, 0x1b, 0xfc, 0x3d, 0x3a, 0xc3, 0xac, 0xbe, 
  0xb6, 0xb0, 0xc9, 0x3c, 0x1a, 0x8e, 0x0e, 0x3e, 0xc8, 0x49, 0xc0, 0x3e, 
  0xf2, 0x83, 0x76, 0xbe, 0x22, 0x45, 0x3d, 0x3e, 0xcc, 0xa7, 0xc0, 0x3d, 
  0x3a, 0x39, 0x8e, 0xbe, 0x2b, 0x84, 0x34, 0xbe, 0x6a, 0x17, 0x7d, 0x3f, 
  0x9e, 0x02, 0x18, 0x3e, 0xf2, 0x7b, 0x14, 0xbf, 0x12, 0x59, 0x25, 0x3e, 
  0xc8, 0x00, 0x48, 0x3e, 0x4a, 0xd6, 0x46, 0xbe, 0x77, 0xa3, 0x33, 0x3e, 
  0xe5, 0xdc, 0x70, 0x3d, 0x11, 0xfe, 0x27, 0xbe, 0x5e, 0x8b, 0xa4, 0x3d, 
  0x72, 0xe3, 0x55, 0x3d, 0xb7, 0x77, 0x77, 0x3e, 0xc0, 0xc4, 0x65, 0xbd, 
  0xaf, 0x08, 0xfa, 0x3d, 0xa1, 0x4c, 0x1c, 0xbe, 0x25, 0x14, 0x3a, 0x3e, 
  0x8e, 0xb4, 0x1a, 0x3b, 0x02, 0x41, 0x44, 0x3f, 0x8c, 0xb8, 0xa7, 0xbe, 
  0x95, 0xcb, 0x01, 0xbc, 0xe7, 0xde, 0x4b, 0xbc, 0xc7, 0x44, 0x19, 0x3e, 
  0x67, 0xff, 0xe9, 0xbc, 0xc6, 0xf1, 0x10, 0x3e, 0x7d, 0x3f, 0x38, 0x3e, 
  0x07, 0x51, 0x34, 0x3e, 0x58, 0xc0, 0x13, 0xbe, 0xbe, 0xcc, 0x59, 0xbd, 
  0x7e, 0xfc, 0x4b, 0xbe, 0x42, 0x2e, 0x06, 0x3f, 0x31, 0x8a, 0x49, 0xbe, 
  0x83, 0xd4, 0x1a, 0x3f, 0x44, 0x1b, 0x2e, 0x3e, 0xf9, 0x9e, 0x77, 0x3e, 
  0xf8, 0x14, 0x53, 0x3e, 0xb9, 0xf2, 0xd8, 0xbd, 0x22, 0x8b, 0x63, 0x3d, 
  0x45, 0x8e, 0x90, 0xbe, 0x23, 0x92, 0x42, 0x3e, 0x61, 0xf9, 0x06, 0xbe, 
  0xdf, 0x58, 0xb0, 0x3e, 0x3a, 0xf1, 0xb0, 0xbe, 0xac, 0xbe, 0x7c, 0x3e, 
  0x5d, 0x83, 0x1d, 0xbf, 0xa6, 0x8e, 0xe1, 0x3e, 0x9e, 0x2c, 0xe7, 0xbd, 
  0xe9, 0xaa, 0xdb, 0xbb, 0x9e, 0xd7, 0xc0, 0xbd, 0xc3, 0x6b, 0x03, 0x3f, 
  0xa7, 0x34, 0xa8, 0x3e, 0x3c, 0x4b, 0x95, 0xbe, 0xc4, 0xef, 0x94, 0xbd, 
  0x3c, 0x0c, 0x41, 0x3e, 0x09, 0xf9, 0xc5, 0xbe, 0x66, 0x26, 0x7f, 0x3d, 
  0x05, 0x30, 0x7f, 0x3e, 0x1b, 0xb9, 0xcd, 0xbc, 0x3d, 0x8d, 0x01, 0xbf, 
  0xc5, 0x67, 0xff, 0xbe, 0x87, 0x4e, 0xa1, 0x3e, 0x18, 0xc2, 0xd2, 0xbe, 
  0x19, 0xb2, 0xe8, 0x3d, 0xc9, 0xb5, 0x27, 0xbc, 0xa3, 0xa4, 0x32, 0xbe, 
  0x4a, 0xaf, 0x94, 0xbc, 0x10, 0xdc, 0x01, 0x3c, 0x2e, 0x1a, 0x75, 0x3e, 
  0x43, 0xe2, 0x9f, 0xbc, 0x74, 0x40, 0x5b, 0x3c, 0xae, 0x7f, 0xae, 0xbd, 
  0x00, 0xd4, 0x13, 0xbe, 0x33, 0x49, 0xc4, 0x3e, 0xd0, 0x88, 0x20, 0x3e, 
  0xd1, 0xba, 0xa1, 0x3e, 0xc5, 0xd4, 0xb9, 0x3d, 0x35, 0xe7, 0xff, 0xbd, 
  0x17, 0x0a, 0x23, 0xbd, 0x10, 0x5c, 0xfc, 0xbd, 0x2e, 0x8a, 0xac, 0xbc, 
  0xa3, 0xca, 0xee, 0xbd, 0xfc, 0xd8, 0x17, 0x3e, 0xd6, 0x3a, 0xb7, 0xbe, 
  0x6b, 0x8e, 0xf6, 0x3d, 0x07, 0xa8, 0x38, 0xbe, 0x5d, 0x2c, 0x00, 0x3e, 
  0x71, 0x11, 0xca, 0x3d, 0x5a, 0xed, 0x1e, 0x3d, 0x88, 0x85, 0xb0, 0x3d, 
  0xb1, 0x08, 0xae, 0xbe, 0x5e, 0x0b, 0x72, 0xbe, 0x51, 0x2b, 0xd5, 0xbc, 
  0x2c, 0x97, 0xc1, 0xbd, 0x6c, 0x06, 0x7a, 0xbd, 0x1a, 0x24, 0x89, 0xbe, 
  0xfc, 0x05, 0x3c, 0xbd, 0x54, 0x32, 0x80, 0xbe, 0x13, 0x8c, 0x92, 0xbd, 
  0x17, 0x01, 0x39, 0xbe, 0xd1, 0x2e, 0xf9, 0xbb, 0xad, 0x6a, 0xc4, 0xbc, 
  0x79, 0x7d, 0xc7, 0xbd, 0x5c, 0xa7, 0x42, 0x3d, 0x34, 0xe8, 0xbc, 0x3d, 
  0xbe, 0x5e, 0x0e, 0x3d, 0xb3, 0xf1, 0x39, 0xbe, 0x05, 0xfc, 0xfd, 0xbd, 
  0xf9, 0xc9, 0x86, 0x3d, 0x07, 0x4c, 0x21, 0x3d, 0xa9, 0x3d, 0x09, 0xbf, 
  0x03, 0xea, 0xa3, 0xbd, 0x5b, 0xe1, 0xf8, 0x3c, 0xac, 0x13, 0x06, 0xbe, 
  0xa3, 0xcb, 0xf9, 0xbe, 0x63, 0xec, 0x09, 0xbf, 0x92, 0xd6, 0xf6, 0x3d, 
  0xfa, 0x31, 0xdf, 0x3c, 0xe0, 0x3f, 0xd3, 0xbe, 0xe8, 0xc9, 0x04, 0xbc, 
  0xfb, 0xd2, 0xcd, 0x3d, 0xb2, 0xbc, 0xae, 0x3d, 0x50, 0x51, 0xe4, 0xbd, 
  0x70, 0x81, 0xac, 0xbc, 0x9c, 0xb1, 0x4d, 0x3c, 0x9f, 0xa3, 0xb0, 0x3d, 
  0xba, 0x06, 0x84, 0xbc, 0x58, 0x9e, 0xc9, 0xbe, 0x40, 0x38, 0x16, 0x3c, 
  0x09, 0x8c, 0x2e, 0x3d, 0xc8, 0x0a, 0xe7, 0xbb, 0xfd, 0x3a, 0x06, 0xbd, 
  0x82, 0x68, 0x88, 0x3e, 0xf1, 0x44, 0x0f, 0x3c, 0x34, 0x72, 0x6e, 0x3e, 
  0xc6, 0x59, 0x52, 0x3d, 0x11, 0x61, 0x10, 0x3e, 0xe4, 0x39, 0x04, 0xbf, 
  0x5a, 0x3d, 0xc2, 0x3d, 0xac, 0xf7, 0x97, 0xbe, 0xa0, 0xcd, 0xb9, 0xbe, 
  0x68, 0x12, 0xf0, 0x3d, 0x86, 0xd4, 0x4d, 0xbe, 0xe4, 0x41, 0x7d, 0xbe, 
  0x91, 0x2b, 0x54, 0xbe, 0x05, 0xca, 0x91, 0x3d, 0xc4, 0xb2, 0x90, 0xbe, 
  0x05, 0x76, 0x73, 0x3d, 0xcb, 0x1c, 0x65, 0x3c, 0x94, 0xf8, 0x94, 0xbe, 
  0x47, 0x26, 0xa6, 0x3c, 0x8b, 0xb5, 0xdb, 0x3d, 0xc0, 0xaf, 0x2d, 0xbd, 
  0x7b, 0xca, 0xc9, 0x3c, 0xce, 0x40, 0x0b, 0x3d, 0xef, 0xfc, 0xde, 0xbd, 
  0xb2, 0x2e, 0x33, 0x3c, 0x6f, 0x8f, 0xb0, 0xbd, 0x32, 0x71, 0xaf, 0xbd, 
  0x24, 0x9a, 0x0f, 0x3d, 0xe2, 0x77, 0x27, 0xbe, 0xda, 0x10, 0xe1, 0x3b, 
  0x86, 0x18, 0x16, 0xbe, 0x83, 0x20, 0x66, 0xbe, 0x30, 0xfd, 0x6f, 0xbe, 
  0x73, 0xa1, 0xe0, 0x3d, 0x41, 0x7d, 0x6d, 0xbe, 0x44, 0x66, 0x90, 0xbd, 
  0x30, 0xb6, 0x31, 0xbe, 0x05, 0x62, 0x21, 0xbd, 0x86, 0x48, 0x71, 0x3e, 
  0xc4, 0xba, 0x8f, 0xbd, 0x92, 0xd4, 0x06, 0x3d, 0xd7, 0x39, 0x6a, 0xbe, 
  0x97, 0x16, 0x15, 0x3e, 0x71, 0x71, 0x07, 0xbd, 0x1b, 0x7e, 0x87, 0xbe, 
  0xc2, 0x30, 0x82, 0x3d, 0xbc, 0x42, 0x8b, 0x3e, 0xf4, 0x04, 0x2c, 0x3e, 
  0xcb, 0x03, 0x8c, 0xbe, 0x2e, 0x11, 0x0c, 0xbe, 0xbb, 0x71, 0x5a, 0x3b, 
  0xf7, 0xcf, 0x0e, 0x3e, 0x23, 0x02, 0xdd, 0x3d, 0x38, 0xd3, 0xc5, 0x3d, 
  0x11, 0xe0, 0xcc, 0xbd, 0x1c, 0x31, 0x4c, 0xbd, 0x73, 0xb1, 0x20, 0xbe, 
  0x43, 0x76, 0x12, 0x3e, 0x15, 0xce, 0x66, 0x3d, 0xa7, 0x59, 0xfc, 0x3d, 
  0x53, 0xdb, 0x58, 0x3e, 0x84, 0x05, 0x83, 0xbd, 0x61, 0x24, 0x29, 0x3e, 
  0xc2, 0xc7, 0x14, 0x3e, 0x7e, 0xb9, 0xac, 0x3b, 0x0b, 0xa5, 0x4a, 0x3e, 
  0x59, 0x36, 0x5a, 0xbe, 0x6d, 0xb0, 0x10, 0x3e, 0x44, 0xa0, 0x14, 0x3e, 
  0x6b, 0x3c, 0x91, 0x3e, 0xd5, 0xa0, 0x85, 0xbd, 0xe5, 0x50, 0x43, 0x3e, 
  0xfa, 0xfa, 0xee, 0xbd, 0xfe, 0x08, 0x8c, 0x3e, 0xa2, 0x63, 0x09, 0xbe, 
  0x13, 0xe0, 0xaf, 0xbc, 0xa7, 0xab, 0x8e, 0xbe, 0x4b, 0xb9, 0xd1, 0xbe, 
  0x55, 0x4c, 0x19, 0x3e, 0x76, 0xb8, 0x19, 0x3e, 0x58, 0x4e, 0x70, 0xbe, 
  0x5d, 0x60, 0x02, 0xbe, 0xe9, 0x29, 0x6e, 0xbe, 0x48, 0xe5, 0x6d, 0x3e, 
  0xc5, 0xa0, 0x75, 0xbc, 0x57, 0x1d, 0x35, 0x3d, 0xad, 0xbc, 0xf9, 0xbc, 
  0x3d, 0x0c, 0x20, 0x3e, 0x57, 0xb5, 0x78, 0x3e, 0xd7, 0x42, 0xfa, 0xbd, 
  0xce, 0x13, 0x22, 0xbc, 0xe2, 0x50, 0x50, 0xbe, 0x9d, 0x1f, 0xe1, 0x3d, 
  0x89, 0x24, 0xb5, 0x3d, 0x3c, 0xd7, 0x03, 0x3d, 0x85, 0x82, 0x83, 0xbf, 
  0xa5, 0xb4, 0x5d, 0xbf, 0xd2, 0x45, 0xb6, 0xbe, 0x5e, 0x39, 0x90, 0xbe, 
  0x69, 0xe7, 0x31, 0xbe, 0xdf, 0xa7, 0xb1, 0xbc, 0xe4, 0x58, 0x6e, 0x3e, 
  0xf2, 0x99, 0x3f, 0xbd, 0xdd, 0xa5, 0x15, 0x3e, 0x60, 0xc5, 0x98, 0xbe, 
  0x13, 0x5c, 0x6c, 0x3e, 0x13, 0xd2, 0xbc, 0xbd, 0x22, 0x93, 0x33, 0xbe, 
  0xe1, 0x92, 0x70, 0xbf, 0x9e, 0xe3, 0x88, 0xbd, 0x27, 0x9d, 0x87, 0xbe, 
  0x32, 0x10, 0x0a, 0x3d, 0x79, 0x99, 0x59, 0xbd, 0x2c, 0x31, 0x0b, 0xbe, 
  0x77, 0xf4, 0x26, 0x3d, 0xc2, 0x17, 0xaa, 0x3e, 0x7f, 0x0a, 0x93, 0x3e, 
  0xe9, 0xfc, 0xa4, 0x3c, 0xbb, 0xf7, 0xdc, 0x3d, 0x2c, 0x1e, 0x17, 0x3d, 
  0xcb, 0xe3, 0x42, 0x3e, 0xa0, 0x98, 0x86, 0xbf, 0x74, 0xd5, 0x36, 0xbc, 
  0x14, 0x60, 0xeb, 0x3d, 0xbf, 0x59, 0x9e, 0xbf, 0xc8, 0xf8, 0x53, 0xbe, 
  0x5b, 0x98, 0x0b, 0xbf, 0x26, 0xa4, 0x91, 0x3e, 0x5b, 0x17, 0xbf, 0xbc, 
  0xd4, 0x4f, 0x4c, 0xbd, 0x80, 0x3e, 0x5e, 0xbe, 0x70, 0x54, 0x25, 0xbe, 
  0xf2, 0x84, 0x73, 0xbe, 0xcf, 0xfc, 0x98, 0x3d, 0x54, 0xae, 0x2b, 0xbe, 
  0xb0, 0x54, 0x39, 0x3e, 0x3d, 0xd3, 0x07, 0xbd, 0x44, 0xe4, 0xb4, 0xbd, 
  0x9a, 0x82, 0x8d, 0xbd, 0x4e, 0xc1, 0xd8, 0xbe, 0x4e, 0x09, 0x93, 0xbe, 
  0x75, 0x4e, 0x4b, 0xbf, 0x4c, 0x15, 0x2f, 0x3e, 0x6c, 0x6f, 0x21, 0xbe, 
  0xdd, 0xe0, 0x85, 0xbe, 0x7a, 0x52, 0x5f, 0xbe, 0xb8, 0x96, 0x06, 0xbe, 
  0x4a, 0x14, 0x76, 0x3e, 0xec, 0x5b, 0x88, 0x3e, 0x68, 0x2e, 0x23, 0x3e, 
  0x97, 0x1d, 0x85, 0xbe, 0x78, 0x46, 0x15, 0x3c, 0x61, 0xb3, 0x8f, 0x3d, 
  0x5d, 0xed, 0x1e, 0xbe, 0x5e, 0x65, 0x43, 0xbe, 0xfa, 0x1a, 0xb5, 0xbc, 
  0x5f, 0x1e, 0x50, 0xbd, 0x6e, 0x5b, 0x50, 0x3e, 0x27, 0x1a, 0x9e, 0x3c, 
  0xb0, 0x1f, 0x05, 0xbf, 0xa3, 0x10, 0x29, 0xbf, 0xe5, 0xe3, 0xdb, 0xbd, 
  0xbc, 0xec, 0x74, 0xbe, 0x57, 0xbe, 0x45, 0x3e, 0x2b, 0xfc, 0x5d, 0x3e, 
  0x50, 0x2d, 0x55, 0x3d, 0x82, 0x48, 0x10, 0xbe, 0x44, 0xa3, 0x69, 0x3e, 
  0x4b, 0x56, 0x8f, 0x3c, 0x84, 0x1b, 0xa1, 0x3e, 0x35, 0xd0, 0xdd, 0x3c, 
  0x91, 0xf4, 0x80, 0xbe, 0x66, 0xf2, 0x3f, 0xbf, 0x07, 0xa5, 0x57, 0xbe, 
  0x20, 0xf7, 0x5d, 0xbe, 0x5a, 0x3d, 0x09, 0xbe, 0x13, 0xb3, 0x34, 0xbe, 
  0x69, 0x35, 0x3f, 0xbd, 0x9f, 0x24, 0x9d, 0x3b, 0xc7, 0x09, 0x12, 0x3e, 
  0x28, 0x3a, 0x59, 0x3e, 0x43, 0x16, 0x87, 0xbc, 0x93, 0x43, 0xc6, 0xbd, 
  0x79, 0xbe, 0xc8, 0x3d, 0xe8, 0xbf, 0xaa, 0x3e, 0x97, 0xce, 0x8d, 0xbf, 
  0xf8, 0xe3, 0x74, 0x3e, 0xbf, 0xfc, 0xdc, 0x3c, 0x0e, 0x6b, 0x9b, 0xbf, 
  0x7e, 0x9d, 0x59, 0xbe, 0x5e, 0x21, 0x64, 0xbf, 0xce, 0x81, 0x95, 0x3e, 
  0x26, 0x54, 0xa5, 0x3d, 0x43, 0xab, 0x2e, 0xbe, 0xda, 0xfb, 0x42, 0x3c, 
  0x56, 0x42, 0x0e, 0x3e, 0x7f, 0x41, 0x53, 0x3c, 0x5a, 0xf3, 0x22, 0xbe, 
  0x3d, 0x68, 0x61, 0xbe, 0x44, 0x28, 0x4f, 0x3e, 0x1e, 0xe6, 0xb0, 0xbc, 
  0x9f, 0xe7, 0x8f, 0xbe, 0xfe, 0x71, 0xc6, 0xbb, 0x2b, 0x0e, 0xa8, 0xbd, 
  0x88, 0xb1, 0x0b, 0xbd, 0x16, 0x5e, 0xa1, 0x3d, 0xe0, 0x41, 0x45, 0xbe, 
  0x68, 0xb0, 0x40, 0x3f, 0x17, 0xb3, 0xc3, 0x3d, 0x2a, 0xf5, 0x80, 0x3e, 
  0x3d, 0x38, 0x19, 0x3e, 0xfc, 0xf6, 0x26, 0xbe, 0xee, 0x46, 0x76, 0x3c, 
  0x10, 0x2a, 0x6d, 0x3d, 0x56, 0x1e, 0x0c, 0x3f, 0x2d, 0x3d, 0x10, 0xbe, 
  0x21, 0x7c, 0xc6, 0x3d, 0xfc, 0x8c, 0x82, 0x3d, 0xe3, 0xfe, 0xc8, 0x3d, 
  0x60, 0xd1, 0x58, 0x3e, 0xa3, 0x09, 0x04, 0xbe, 0xd1, 0xa3, 0x39, 0x3f, 
  0xbd, 0xc1, 0x10, 0x3e, 0xbc, 0x68, 0xce, 0xbd, 0x98, 0xe5, 0x9f, 0x3c, 
  0xb7, 0x83, 0x8f, 0x3e, 0x44, 0x1f, 0xda, 0xbd, 0xe8, 0x28, 0xa0, 0x3e, 
  0x62, 0x11, 0x09, 0x3e, 0x15, 0x5f, 0x12, 0x3e, 0x22, 0x04, 0x23, 0x3f, 
  0xe9, 0x85, 0x07, 0xbf, 0x7f, 0x27, 0x7a, 0x3e, 0xfa, 0xc5, 0x50, 0xbe, 
  0x77, 0x2f, 0x09, 0x3f, 0x18, 0x23, 0x8a, 0x3e, 0x28, 0x7c, 0x72, 0x3e, 
  0x45, 0xe1, 0xf9, 0xbb, 0x9c, 0xbb, 0x04, 0x3f, 0x89, 0x66, 0x0d, 0x3f, 
  0x63, 0x06, 0x81, 0x3e, 0xb8, 0xda, 0x04, 0x3e, 0x45, 0x71, 0x9b, 0x3d, 
  0xf8, 0x78, 0x96, 0xbe, 0xfc, 0x40, 0x19, 0x3e, 0xeb, 0xd2, 0x09, 0xbe, 
  0x19, 0x18, 0x8a, 0xbe, 0x32, 0xa1, 0x3f, 0x3e, 0x92, 0x90, 0x56, 0xbe, 
  0x95, 0x88, 0x26, 0xbe, 0x7c, 0xb0, 0xe2, 0xbd, 0x23, 0x4f, 0xd9, 0xbc, 
  0xad, 0xd2, 0x1e, 0x3e, 0x91, 0x66, 0xa5, 0x3e, 0x4c, 0x38, 0x0d, 0x3d, 
  0xb7, 0x15, 0xb7, 0xbe, 0x9d, 0x6b, 0x54, 0xbe, 0xac, 0x0c, 0x83, 0x3e, 
  0x9c, 0xb1, 0x42, 0xbe, 0x0a, 0xc7, 0x34, 0x3e, 0xef, 0xea, 0x97, 0x3e, 
  0xe2, 0xb0, 0x45, 0x3f, 0x84, 0x6d, 0x03, 0x3e, 0x7a, 0xc3, 0x85, 0x3e, 
  0x6a, 0xa9, 0x8c, 0xbd, 0xd3, 0x8b, 0xca, 0xbd, 0x1f, 0xfd, 0xa8, 0x3e, 
  0x7b, 0x9c, 0xfe, 0x3d, 0xbf, 0x2f, 0x2f, 0x3e, 0xd6, 0x01, 0x05, 0x3d, 
  0x9e, 0xb0, 0xd9, 0xbd, 0x71, 0xe6, 0x0a, 0x3f, 0xcb, 0x2c, 0xbb, 0x3e, 
  0x64, 0x17, 0x30, 0xbb, 0x6d, 0x37, 0x77, 0x3e, 0xa1, 0xcc, 0x74, 0xbe, 
  0xcd, 0x17, 0x76, 0xbc, 0x43, 0xa2, 0xac, 0xbc, 0xa2, 0xb8, 0xb8, 0x3e, 
  0xe6, 0x30, 0xa3, 0x3e, 0xdb, 0xcd, 0x5b, 0x3e, 0x75, 0xb4, 0x67, 0x3c, 
  0x8d, 0xb5, 0x88, 0x3e, 0xfe, 0xe7, 0x9e, 0x3e, 0x88, 0xef, 0xa1, 0x3e, 
  0xb2, 0x6a, 0xf2, 0x3e, 0xc8, 0xd0, 0x0b, 0xbe, 0x7e, 0xdc, 0x05, 0x3c, 
  0x3a, 0xeb, 0xb8, 0x3c, 0x16, 0xb8, 0x66, 0x3e, 0x42, 0x9d, 0x63, 0x3e, 
  0x8a, 0x51, 0x7e, 0x3d, 0x46, 0x5d, 0xd7, 0xbd, 0x67, 0x89, 0xb0, 0x3d, 
  0x82, 0xf2, 0x0c, 0x3f, 0x9a, 0x57, 0xa0, 0xbe, 0xea, 0xeb, 0x78, 0x3d, 
  0x94, 0x0e, 0x97, 0x3e, 0x5f, 0x25, 0xdd, 0x3e, 0x69, 0x7f, 0x71, 0x3e, 
  0x73, 0x2d, 0x91, 0x3e, 0x98, 0xf4, 0x78, 0x3e, 0x20, 0xef, 0x19, 0x3f, 
  0x4e, 0x4f, 0xc0, 0x3d, 0xc8, 0x9e, 0x87, 0x3e, 0x71, 0x26, 0x94, 0x3e, 
  0xfb, 0x86, 0xa6, 0x3e, 0x54, 0xd7, 0x9b, 0xbd, 0x7a, 0xdf, 0x28, 0x3e, 
  0x53, 0x95, 0xc7, 0xbd, 0xc4, 0x60, 0x4c, 0xbd, 0xb3, 0xcb, 0x9b, 0x3e, 
  0xd3, 0x4b, 0xd5, 0x3d, 0xd7, 0x11, 0x02, 0x3e, 0x0a, 0xb7, 0x00, 0x3f, 
  0xd2, 0x44, 0xd6, 0xbd, 0x6e, 0xec, 0x8a, 0x3d, 0xa2, 0x31, 0xf8, 0x3d, 
  0x13, 0x1e, 0x40, 0x3f, 0xc0, 0xed, 0x6c, 0xbe, 0x26, 0x7e, 0x01, 0xbe, 
  0x2c, 0x9a, 0x00, 0xbe, 0x3c, 0x81, 0x56, 0x3e, 0x95, 0x0b, 0xb7, 0x3e, 
  0x6c, 0xc6, 0xe1, 0x3e, 0x97, 0x9b, 0x91, 0x3e, 0xb8, 0xc6, 0x67, 0x3d, 
  0x72, 0x2e, 0x59, 0x3e, 0xde, 0xfd, 0xff, 0xff, 0x04, 0x00, 0x00, 0x00, 
  0x80, 0x01, 0x00, 0x00, 0x8d, 0x28, 0x11, 0xbf, 0xfe, 0x8e, 0x91, 0xbe, 
  0xe0, 0x9d, 0x0d, 0xbe, 0x6d, 0xa0, 0xed, 0xbe, 0xf3, 0xa5, 0xac, 0x3d, 
  0x95, 0xaa, 0x24, 0xbf, 0xc0, 0x4f, 0xeb, 0xbe, 0x80, 0x3c, 0x84, 0x3f, 
  0xab, 0x8b, 0xbd, 0x3e, 0x3e, 0xae, 0xe5, 0xbd, 0xe5, 0xf5, 0xff, 0x3e, 
  0x15, 0xbf, 0x83, 0xbe, 0x40, 0x75, 0x19, 0xbf, 0xd4, 0x9f, 0x01, 0xbf, 
  0xa0, 0x0c, 0x04, 0x3f, 0x6f, 0x62, 0xea, 0x3e, 0xc6, 0x31, 0xad, 0x3d, 
  0xb2, 0xb6, 0xe6, 0x3d, 0x18, 0xf9, 0x72, 0x3e, 0x80, 0x6f, 0xad, 0x3e, 
  0xe4, 0xc0, 0x5f, 0xbe, 0xf3, 0xb5, 0xc5, 0x3d, 0xd4, 0x13, 0x0e, 0x3f, 
  0xd1, 0x11, 0x70, 0x3f, 0xb3, 0xc4, 0x8a, 0x3f, 0x6a, 0x2f, 0x31, 0x3e, 
  0x24, 0x6b, 0xad, 0xbe, 0x22, 0xbb, 0x7c, 0xbc, 0x53, 0x3c, 0x4c, 0xbe, 
  0x30, 0x9e, 0x0f, 0xbf, 0x7a, 0x08, 0x37, 0x3e, 0x1b, 0xe1, 0x98, 0x3e, 
  0xb2, 0x7d, 0x71, 0xbe, 0xb3, 0x66, 0x7d, 0x3e, 0xd3, 0x49, 0x1b, 0x3f, 
  0xbc, 0x2b, 0x16, 0xbe, 0xee, 0x2d, 0x58, 0xbe, 0xc5, 0x7a, 0x21, 0xbe, 
  0x93, 0x75, 0x1b, 0x3e, 0x92, 0xfa, 0x29, 0x3e, 0x06, 0xd7, 0x19, 0x3f, 
  0xd2, 0xa1, 0x18, 0xbe, 0x69, 0x39, 0x96, 0x3e, 0x4b, 0x1f, 0x6f, 0xbe, 
  0xfe, 0x73, 0xa4, 0xbe, 0x8c, 0x89, 0x34, 0xbe, 0x20, 0x39, 0x7b, 0x3e, 
  0x38, 0x92, 0xa4, 0xbc, 0x36, 0xbe, 0x4e, 0xbe, 0x33, 0xf8, 0x01, 0xbd, 
  0x18, 0x77, 0x1b, 0xbe, 0xb5, 0x27, 0x1d, 0xbe, 0x75, 0x8e, 0xe7, 0xbd, 
  0xde, 0xb5, 0x1f, 0xbe, 0x2c, 0x14, 0x98, 0x3d, 0x0d, 0x1b, 0x1c, 0x3f, 
  0x38, 0x1f, 0x4f, 0x3e, 0x27, 0xc3, 0x96, 0x3e, 0x3d, 0x0a, 0x9d, 0x3e, 
  0xf5, 0xff, 0x80, 0x3e, 0x66, 0x3c, 0xfe, 0x3c, 0xa7, 0x85, 0xac, 0xbe, 
  0x53, 0x90, 0x29, 0x3e, 0x1e, 0x9f, 0x5e, 0xbc, 0xd9, 0xcf, 0x20, 0x3f, 
  0x25, 0x38, 0x08, 0x3e, 0xa3, 0x10, 0x09, 0xbf, 0x5b, 0xe2, 0x21, 0x3f, 
  0x91, 0x2f, 0x19, 0x3e, 0x67, 0x7f, 0x0e, 0x3f, 0xc9, 0x17, 0xa8, 0x3e, 
  0x92, 0x3b, 0x8b, 0xbf, 0x3e, 0x42, 0xd0, 0xbe, 0x39, 0x11, 0xed, 0x3e, 
  0xfb, 0x19, 0x53, 0xbf, 0xce, 0x79, 0xb9, 0x3e, 0xfc, 0x3a, 0xf1, 0x3e, 
  0x53, 0x19, 0xf8, 0x3d, 0x58, 0xf3, 0xf2, 0xbe, 0x76, 0xad, 0xbb, 0xbe, 
  0xfc, 0x3c, 0xe3, 0xbd, 0xc6, 0x12, 0x4e, 0xbf, 0xad, 0x3a, 0x60, 0xbf, 
  0x2f, 0x4b, 0x57, 0x3d, 0xd9, 0xf9, 0xb2, 0x3e, 0xba, 0x27, 0x49, 0xbe, 
  0xde, 0xe7, 0x91, 0xbf, 0xf0, 0x33, 0xa0, 0xbf, 0x48, 0x13, 0x87, 0xbf, 
  0xee, 0xd8, 0x21, 0xbf, 0x6e, 0x7f, 0x50, 0x3e, 0x03, 0xe6, 0x2f, 0xbd, 
  0x93, 0xb6, 0x0a, 0x3f, 0x25, 0xde, 0x0d, 0x3f, 0x03, 0x4d, 0x44, 0xbf, 
  0x5f, 0xa4, 0x60, 0xbf, 0x64, 0xfa, 0xff, 0xff, 0x68, 0xfa, 0xff, 0xff, 
  0x0f, 0x00, 0x00, 0x00, 0x4d, 0x4c, 0x49, 0x52, 0x20, 0x43, 0x6f, 0x6e, 
  0x76, 0x65, 0x72, 0x74, 0x65, 0x64, 0x2e, 0x00, 0x01, 0x00, 0x00, 0x00, 
  0x14, 0x00, 0x00, 0x00, 0x00, 0x00, 0x0e, 0x00, 0x18, 0x00, 0x14, 0x00, 
  0x10, 0x00, 0x0c, 0x00, 0x08, 0x00, 0x04, 0x00, 0x0e, 0x00, 0x00, 0x00, 
  0x14, 0x00, 0x00, 0x00, 0x1c, 0x00, 0x00, 0x00, 0x24, 0x01, 0x00, 0x00, 
  0x28, 0x01, 0x00, 0x00, 0x2c, 0x01, 0x00, 0x00, 0x04, 0x00, 0x00, 0x00, 
  0x6d, 0x61, 0x69, 0x6e, 0x00, 0x00, 0x00, 0x00, 0x04, 0x00, 0x00, 0x00, 
  0xcc, 0x00, 0x00, 0x00, 0x84, 0x00, 0x00, 0x00, 0x50, 0x00, 0x00, 0x00, 
  0x14, 0x00, 0x00, 0x00, 0x00, 0x00, 0x0e, 0x00, 0x1a, 0x00, 0x14, 0x00, 
  0x10, 0x00, 0x0c, 0x00, 0x0b, 0x00, 0x04, 0x00, 0x0e, 0x00, 0x00, 0x00, 
  0x1c, 0x00, 0x00, 0x00, 0x00, 0x00, 0x00, 0x09, 0x1c, 0x00, 0x00, 0x00, 
  0x20, 0x00, 0x00, 0x00, 0x01, 0x00, 0x00, 0x00, 0x00, 0x00, 0x06, 0x00, 
  0x08, 0x00, 0x04, 0x00, 0x06, 0x00, 0x00, 0x00, 0x00, 0x00, 0x80, 0x3f, 
  0x01, 0x00, 0x00, 0x00, 0x0a, 0x00, 0x00, 0x00, 0x01, 0x00, 0x00, 0x00, 
  0x09, 0x00, 0x00, 0x00, 0x9a, 0xff, 0xff, 0xff, 0x10, 0x00, 0x00, 0x00, 
  0x00, 0x00, 0x00, 0x08, 0x0c, 0x00, 0x00, 0x00, 0x10, 0x00, 0x00, 0x00, 
  0x2c, 0xfb, 0xff, 0xff, 0x01, 0x00, 0x00, 0x00, 0x09, 0x00, 0x00, 0x00, 
  0x03, 0x00, 0x00, 0x00, 0x08, 0x00, 0x00, 0x00, 0x01, 0x00, 0x00, 0x00, 
  0x03, 0x00, 0x00, 0x00, 0xca, 0xff, 0xff, 0xff, 0x10, 0x00, 0x00, 0x00, 
  0x00, 0x00, 0x00, 0x08, 0x10, 0x00, 0x00, 0x00, 0x14, 0x00, 0x00, 0x00, 
  0xba, 0xff, 0xff, 0xff, 0x00, 0x00, 0x00, 0x01, 0x01, 0x00, 0x00, 0x00, 
  0x08, 0x00, 0x00, 0x00, 0x03, 0x00, 0x00, 0x00, 0x07, 0x00, 0x00, 0x00, 
  0x02, 0x00, 0x00, 0x00, 0x04, 0x00, 0x00, 0x00, 0x00, 0x00, 0x0e, 0x00, 
  0x16, 0x00, 0x00, 0x00, 0x10, 0x00, 0x0c, 0x00, 0x0b, 0x00, 0x04, 0x00, 
  0x0e, 0x00, 0x00, 0x00, 0x18, 0x00, 0x00, 0x00, 0x00, 0x00, 0x00, 0x08, 
  0x18, 0x00, 0x00, 0x00, 0x1c, 0x00, 0x00, 0x00, 0x00, 0x00, 0x06, 0x00, 
  0x08, 0x00, 0x07, 0x00, 0x06, 0x00, 0x00, 0x00, 0x00, 0x00, 0x00, 0x01, 
  0x01, 0x00, 0x00, 0x00, 0x07, 0x00, 0x00, 0x00, 0x03, 0x00, 0x00, 0x00, 
  0x00, 0x00, 0x00, 0x00, 0x06, 0x00, 0x00, 0x00, 0x05, 0x00, 0x00, 0x00, 
  0x01, 0x00, 0x00, 0x00, 0x0a, 0x00, 0x00, 0x00, 0x01, 0x00, 0x00, 0x00, 
  0x00, 0x00, 0x00, 0x00, 0x0b, 0x00, 0x00, 0x00, 0xfc, 0x03, 0x00, 0x00, 
  0xa4, 0x03, 0x00, 0x00, 0x4c, 0x03, 0x00, 0x00, 0x10, 0x03, 0x00, 0x00, 
  0xb4, 0x02, 0x00, 0x00, 0x5c, 0x02, 0x00, 0x00, 0x10, 0x02, 0x00, 0x00, 
  0x7c, 0x01, 0x00, 0x00, 0xe0, 0x00, 0x00, 0x00, 0x60, 0x00, 0x00, 0x00, 
  0x04, 0x00, 0x00, 0x00, 0x46, 0xfc, 0xff, 0xff, 0x00, 0x00, 0x00, 0x01, 
  0x14, 0x00, 0x00, 0x00, 0x1c, 0x00, 0x00, 0x00, 0x1c, 0x00, 0x00, 0x00, 
  0x0b, 0x00, 0x00, 0x00, 0x34, 0x00, 0x00, 0x00, 0x02, 0x00, 0x00, 0x00, 
  0xff, 0xff, 0xff, 0xff, 0x03, 0x00, 0x00, 0x00, 0x30, 0xfc, 0xff, 0xff, 
  0x1b, 0x00, 0x00, 0x00, 0x53, 0x74, 0x61, 0x74, 0x65, 0x66, 0x75, 0x6c, 
  0x50, 0x61, 0x72, 0x74, 0x69, 0x74, 0x69, 0x6f, 0x6e, 0x65, 0x64, 0x43, 
  0x61, 0x6c, 0x6c, 0x5f, 0x31, 0x3a, 0x30, 0x00, 0x02, 0x00, 0x00, 0x00, 
  0x01, 0x00, 0x00, 0x00, 0x03, 0x00, 0x00, 0x00, 0x9e, 0xfc, 0xff, 0xff, 
  0x00, 0x00, 0x00, 0x01, 0x14, 0x00, 0x00, 0x00, 0x1c, 0x00, 0x00, 0x00, 
  0x1c, 0x00, 0x00, 0x00, 0x0a, 0x00, 0x00, 0x00, 0x58, 0x00, 0x00, 0x00, 
  0x02, 0x00, 0x00, 0x00, 0xff, 0xff, 0xff, 0xff, 0x03, 0x00, 0x00, 0x00, 
  0x88, 0xfc, 0xff, 0xff, 0x3c, 0x00, 0x00, 0x00, 0x73, 0x65, 0x71, 0x75, 
  0x65, 0x6e, 0x74, 0x69, 0x61, 0x6c, 0x5f, 0x31, 0x2f, 0x64, 0x65, 0x6e, 
  0x73, 0x65, 0x5f, 0x32, 0x5f, 0x31, 0x2f, 0x4d, 0x61, 0x74, 0x4d, 0x75, 
  0x6c, 0x3b, 0x73, 0x65, 0x71, 0x75, 0x65, 0x6e, 0x74, 0x69, 0x61, 0x6c, 
  0x5f, 0x31, 0x2f, 0x64, 0x65, 0x6e, 0x73, 0x65, 0x5f, 0x32, 0x5f, 0x31, 
  0x2f, 0x42, 0x69, 0x61, 0x73, 0x41, 0x64, 0x64, 0x00, 0x00, 0x00, 0x00, 
  0x02, 0x00, 0x00, 0x00, 0x01, 0x00, 0x00, 0x00, 0x03, 0x00, 0x00, 0x00, 
  0x1a, 0xfd, 0xff, 0xff, 0x00, 0x00, 0x00, 0x01, 0x14, 0x00, 0x00, 0x00, 
  0x1c, 0x00, 0x00, 0x00, 0x1c, 0x00, 0x00, 0x00, 0x09, 0x00, 0x00, 0x00, 
  0x74, 0x00, 0x00, 0x00, 0x02, 0x00, 0x00, 0x00, 0xff, 0xff, 0xff, 0xff, 
  0x20, 0x00, 0x00, 0x00, 0x04, 0xfd, 0xff, 0xff, 0x58, 0x00, 0x00, 0x00, 
  0x73, 0x65, 0x71, 0x75, 0x65, 0x6e, 0x74, 0x69, 0x61, 0x6c, 0x5f, 0x31, 
  0x2f, 0x64, 0x65, 0x6e, 0x73, 0x65, 0x5f, 0x31, 0x5f, 0x32, 0x2f, 0x4d, 
  0x61, 0x74, 0x4d, 0x75, 0x6c, 0x3b, 0x73, 0x65, 0x71, 0x75, 0x65, 0x6e, 
  0x74, 0x69, 0x61, 0x6c, 0x5f, 0x31, 0x2f, 0x64, 0x65, 0x6e, 0x73, 0x65, 
  0x5f, 0x31, 0x5f, 0x32, 0x2f, 0x52, 0x65, 0x6c, 0x75, 0x3b, 0x73, 0x65, 
  0x71, 0x75, 0x65, 0x6e, 0x74, 0x69, 0x61, 0x6c, 0x5f, 0x31, 0x2f, 0x64, 
  0x65, 0x6e, 0x73, 0x65, 0x5f, 0x31, 0x5f, 0x32, 0x2f, 0x42, 0x69, 0x61, 
  0x73, 0x41, 0x64, 0x64, 0x00, 0x00, 0x00, 0x00, 0x02, 0x00, 0x00, 0x00, 
  0x01, 0x00, 0x00, 0x00, 0x20, 0x00, 0x00, 0x00, 0xb2, 0xfd, 0xff, 0xff, 
  0x00, 0x00, 0x00, 0x01, 0x14, 0x00, 0x00, 0x00, 0x1c, 0x00, 0x00, 0x00, 
  0x1c, 0x00, 0x00, 0x00, 0x08, 0x00, 0x00, 0x00, 0x6c, 0x00, 0x00, 0x00, 
  0x02, 0x00, 0x00, 0x00, 0xff, 0xff, 0xff, 0xff, 0x40, 0x00, 0x00, 0x00, 
  0x9c, 0xfd, 0xff, 0xff, 0x52, 0x00, 0x00, 0x00, 0x73, 0x65, 0x71, 0x75, 
  0x65, 0x6e, 0x74, 0x69, 0x61, 0x6c, 0x5f, 0x31, 0x2f, 0x64, 0x65, 0x6e, 
  0x73, 0x65, 0x5f, 0x31, 0x2f, 0x4d, 0x61, 0x74, 0x4d, 0x75, 0x6c, 0x3b, 
  0x73, 0x65, 0x71, 0x75, 0x65, 0x6e, 0x74, 0x69, 0x61, 0x6c, 0x5f, 0x31, 
  0x2f, 0x64, 0x65, 0x6e, 0x73, 0x65, 0x5f, 0x31, 0x2f, 0x52, 0x65, 0x6c, 
  0x75, 0x3b, 0x73, 0x65, 0x71, 0x75, 0x65, 0x6e, 0x74, 0x69, 0x61, 0x6c, 
  0x5f, 0x31, 0x2f, 0x64, 0x65, 0x6e, 0x73, 0x65, 0x5f, 0x31, 0x2f, 0x42, 
  0x69, 0x61, 0x73, 0x41, 0x64, 0x64, 0x00, 0x00, 0x02, 0x00, 0x00, 0x00, 
  0x01, 0x00, 0x00, 0x00, 0x40, 0x00, 0x00, 0x00, 0x96, 0xfe, 0xff, 0xff, 
  0x00, 0x00, 0x00, 0x01, 0x10, 0x00, 0x00, 0x00, 0x10, 0x00, 0x00, 0x00, 
  0x07, 0x00, 0x00, 0x00, 0x28, 0x00, 0x00, 0x00, 0x1c, 0xfe, 0xff, 0xff, 
  0x1b, 0x00, 0x00, 0x00, 0x73, 0x65, 0x71, 0x75, 0x65, 0x6e, 0x74, 0x69, 
  0x61, 0x6c, 0x5f, 0x31, 0x2f, 0x64, 0x65, 0x6e, 0x73, 0x65, 0x5f, 0x31, 
  0x2f, 0x4d, 0x61, 0x74, 0x4d, 0x75, 0x6c, 0x00, 0x02, 0x00, 0x00, 0x00, 
  0x40, 0x00, 0x00, 0x00, 0x02, 0x00, 0x00, 0x00, 0xde, 0xfe, 0xff, 0xff, 
  0x00, 0x00, 0x00, 0x01, 0x10, 0x00, 0x00, 0x00, 0x10, 0x00, 0x00, 0x00, 
  0x06, 0x00, 0x00, 0x00, 0x38, 0x00, 0x00, 0x00, 0x64, 0xfe, 0xff, 0xff, 
  0x2b, 0x00, 0x00, 0x00, 0x73, 0x65, 0x71, 0x75, 0x65, 0x6e, 0x74, 0x69, 
  0x61, 0x6c, 0x5f, 0x31, 0x2f, 0x64, 0x65, 0x6e, 0x73, 0x65, 0x5f, 0x31, 
  0x2f, 0x42, 0x69, 0x61, 0x73, 0x41, 0x64, 0x64, 0x2f, 0x52, 0x65, 0x61, 
  0x64, 0x56, 0x61, 0x72, 0x69, 0x61, 0x62, 0x6c, 0x65, 0x4f, 0x70, 0x00, 
  0x01, 0x00, 0x00, 0x00, 0x40, 0x00, 0x00, 0x00, 0x32, 0xff, 0xff, 0xff, 
  0x00, 0x00, 0x00, 0x01, 0x10, 0x00, 0x00, 0x00, 0x10, 0x00, 0x00, 0x00, 
  0x05, 0x00, 0x00, 0x00, 0x3c, 0x00, 0x00, 0x00, 0xb8, 0xfe, 0xff, 0xff, 
  0x2d, 0x00, 0x00, 0x00, 0x73, 0x65, 0x71, 0x75, 0x65, 0x6e, 0x74, 0x69, 
  0x61, 0x6c, 0x5f, 0x31, 0x2f, 0x64, 0x65, 0x6e, 0x73, 0x65, 0x5f, 0x31, 
  0x5f, 0x32, 0x2f, 0x42, 0x69, 0x61, 0x73, 0x41, 0x64, 0x64, 0x2f, 0x52, 
  0x65, 0x61, 0x64, 0x56, 0x61, 0x72, 0x69, 0x61, 0x62, 0x6c, 0x65, 0x4f, 
  0x70, 0x00, 0x00, 0x00, 0x01, 0x00, 0x00, 0x00, 0x20, 0x00, 0x00, 0x00, 
  0x8a, 0xff, 0xff, 0xff, 0x00, 0x00, 0x00, 0x01, 0x10, 0x00, 0x00, 0x00, 
  0x10, 0x00, 0x00, 0x00, 0x04, 0x00, 0x00, 0x00, 0x1c, 0x00, 0x00, 0x00, 
  0x10, 0xff, 0xff, 0xff, 0x0f, 0x00, 0x00, 0x00, 0x61, 0x72, 0x69, 0x74, 
  0x68, 0x2e, 0x63, 0x6f, 0x6e, 0x73, 0x74, 0x61, 0x6e, 0x74, 0x32, 0x00, 
  0x01, 0x00, 0x00, 0x00, 0x03, 0x00, 0x00, 0x00, 0xc2, 0xff, 0xff, 0xff, 
  0x00, 0x00, 0x00, 0x01, 0x10, 0x00, 0x00, 0x00, 0x10, 0x00, 0x00, 0x00, 
  0x03, 0x00, 0x00, 0x00, 0x1c, 0x00, 0x00, 0x00, 0x48, 0xff, 0xff, 0xff, 
  0x0f, 0x00, 0x00, 0x00, 0x61, 0x72, 0x69, 0x74, 0x68, 0x2e, 0x63, 0x6f, 
  0x6e, 0x73, 0x74, 0x61, 0x6e, 0x74, 0x31, 0x00, 0x02, 0x00, 0x00, 0x00, 
  0x20, 0x00, 0x00, 0x00, 0x40, 0x00, 0x00, 0x00, 0x00, 0x00, 0x16, 0x00, 
  0x18, 0x00, 0x14, 0x00, 0x00, 0x00, 0x10, 0x00, 0x0c, 0x00, 0x08, 0x00, 
  0x00, 0x00, 0x00, 0x00, 0x00, 0x00, 0x07, 0x00, 0x16, 0x00, 0x00, 0x00, 
  0x00, 0x00, 0x00, 0x01, 0x10, 0x00, 0x00, 0x00, 0x10, 0x00, 0x00, 0x00, 
  0x02, 0x00, 0x00, 0x00, 0x1c, 0x00, 0x00, 0x00, 0x9c, 0xff, 0xff, 0xff, 
  0x0e, 0x00, 0x00, 0x00, 0x61, 0x72, 0x69, 0x74, 0x68, 0x2e, 0x63, 0x6f, 
  0x6e, 0x73, 0x74, 0x61, 0x6e, 0x74, 0x00, 0x00, 0x02, 0x00, 0x00, 0x00, 
  0x03, 0x00, 0x00, 0x00, 0x20, 0x00, 0x00, 0x00, 0x00, 0x00, 0x16, 0x00, 
  0x1c, 0x00, 0x18, 0x00, 0x00, 0x00, 0x14, 0x00, 0x10, 0x00, 0x0c, 0x00, 
  0x00, 0x00, 0x00, 0x00, 0x08, 0x00, 0x07, 0x00, 0x16, 0x00, 0x00, 0x00, 
  0x00, 0x00, 0x00, 0x01, 0x14, 0x00, 0x00, 0x00, 0x20, 0x00, 0x00, 0x00, 
  0x20, 0x00, 0x00, 0x00, 0x01, 0x00, 0x00, 0x00, 0x3c, 0x00, 0x00, 0x00, 
  0x02, 0x00, 0x00, 0x00, 0xff, 0xff, 0xff, 0xff, 0x02, 0x00, 0x00, 0x00, 
  0x04, 0x00, 0x04, 0x00, 0x04, 0x00, 0x00, 0x00, 0x1e, 0x00, 0x00, 0x00, 
  0x73, 0x65, 0x72, 0x76, 0x69, 0x6e, 0x67, 0x5f, 0x64, 0x65, 0x66, 0x61, 
  0x75, 0x6c, 0x74, 0x5f, 0x6b, 0x65, 0x72, 0x61, 0x73, 0x5f, 0x74, 0x65, 
  0x6e, 0x73, 0x6f, 0x72, 0x3a, 0x30, 0x00, 0x00, 0x02, 0x00, 0x00, 0x00, 
  0x01, 0x00, 0x00, 0x00, 0x02, 0x00, 0x00, 0x00, 0x02, 0x00, 0x00, 0x00, 
  0x20, 0x00, 0x00, 0x00, 0x04, 0x00, 0x00, 0x00, 0xf4, 0xff, 0xff, 0xff, 
  0x19, 0x00, 0x00, 0x00, 0x00, 0x00, 0x00, 0x19, 0x0c, 0x00, 0x0c, 0x00, 
  0x0b, 0x00, 0x00, 0x00, 0x00, 0x00, 0x04, 0x00, 0x0c, 0x00, 0x00, 0x00, 
  0x09, 0x00, 0x00, 0x00, 0x00, 0x00, 0x00, 0x09, 
};
extern const unsigned int water_model_tflite_len = 11588;
